node {
  name: "Input_Video"
  op: "Placeholder"
  attr {
    key: "dtype"
    value {
      type: DT_FLOAT
    }
  }
  attr {
    key: "shape"
    value {
      shape {
        dim {
          size: 1
        }
        dim {
          size: 80
        }
        dim {
          size: 4096
        }
      }
    }
  }
}
node {
  name: "GT_Caption"
  op: "Placeholder"
  attr {
    key: "dtype"
    value {
      type: DT_INT32
    }
  }
  attr {
    key: "shape"
    value {
      shape {
        dim {
          size: 1
        }
        dim {
          size: 80
        }
      }
    }
  }
}
node {
  name: "Caption_Mask"
  op: "Placeholder"
  attr {
    key: "dtype"
    value {
      type: DT_FLOAT
    }
  }
  attr {
    key: "shape"
    value {
      shape {
        dim {
          size: 1
        }
        dim {
          size: 80
        }
      }
    }
  }
}
node {
  name: "Dropout_Keep_Probability"
  op: "Placeholder"
  attr {
    key: "dtype"
    value {
      type: DT_FLOAT
    }
  }
  attr {
    key: "shape"
    value {
      shape {
        unknown_rank: true
      }
    }
  }
}
node {
  name: "Im2Cap/W_im2cap/Initializer/random_uniform/shape"
  op: "Const"
  attr {
    key: "_class"
    value {
      list {
        s: "loc:@Im2Cap/W_im2cap"
      }
    }
  }
  attr {
    key: "dtype"
    value {
      type: DT_INT32
    }
  }
  attr {
    key: "value"
    value {
      tensor {
        dtype: DT_INT32
        tensor_shape {
          dim {
            size: 2
          }
        }
        tensor_content: "\000\020\000\000\364\001\000\000"
      }
    }
  }
}
node {
  name: "Im2Cap/W_im2cap/Initializer/random_uniform/min"
  op: "Const"
  attr {
    key: "_class"
    value {
      list {
        s: "loc:@Im2Cap/W_im2cap"
      }
    }
  }
  attr {
    key: "dtype"
    value {
      type: DT_FLOAT
    }
  }
  attr {
    key: "value"
    value {
      tensor {
        dtype: DT_FLOAT
        tensor_shape {
        }
        float_val: -0.07999999821186066
      }
    }
  }
}
node {
  name: "Im2Cap/W_im2cap/Initializer/random_uniform/max"
  op: "Const"
  attr {
    key: "_class"
    value {
      list {
        s: "loc:@Im2Cap/W_im2cap"
      }
    }
  }
  attr {
    key: "dtype"
    value {
      type: DT_FLOAT
    }
  }
  attr {
    key: "value"
    value {
      tensor {
        dtype: DT_FLOAT
        tensor_shape {
        }
        float_val: 0.07999999821186066
      }
    }
  }
}
node {
  name: "Im2Cap/W_im2cap/Initializer/random_uniform/RandomUniform"
  op: "RandomUniform"
  input: "Im2Cap/W_im2cap/Initializer/random_uniform/shape"
  attr {
    key: "T"
    value {
      type: DT_INT32
    }
  }
  attr {
    key: "_class"
    value {
      list {
        s: "loc:@Im2Cap/W_im2cap"
      }
    }
  }
  attr {
    key: "dtype"
    value {
      type: DT_FLOAT
    }
  }
  attr {
    key: "seed"
    value {
      i: 0
    }
  }
  attr {
    key: "seed2"
    value {
      i: 0
    }
  }
}
node {
  name: "Im2Cap/W_im2cap/Initializer/random_uniform/sub"
  op: "Sub"
  input: "Im2Cap/W_im2cap/Initializer/random_uniform/max"
  input: "Im2Cap/W_im2cap/Initializer/random_uniform/min"
  attr {
    key: "T"
    value {
      type: DT_FLOAT
    }
  }
  attr {
    key: "_class"
    value {
      list {
        s: "loc:@Im2Cap/W_im2cap"
      }
    }
  }
}
node {
  name: "Im2Cap/W_im2cap/Initializer/random_uniform/mul"
  op: "Mul"
  input: "Im2Cap/W_im2cap/Initializer/random_uniform/RandomUniform"
  input: "Im2Cap/W_im2cap/Initializer/random_uniform/sub"
  attr {
    key: "T"
    value {
      type: DT_FLOAT
    }
  }
  attr {
    key: "_class"
    value {
      list {
        s: "loc:@Im2Cap/W_im2cap"
      }
    }
  }
}
node {
  name: "Im2Cap/W_im2cap/Initializer/random_uniform"
  op: "AddV2"
  input: "Im2Cap/W_im2cap/Initializer/random_uniform/mul"
  input: "Im2Cap/W_im2cap/Initializer/random_uniform/min"
  attr {
    key: "T"
    value {
      type: DT_FLOAT
    }
  }
  attr {
    key: "_class"
    value {
      list {
        s: "loc:@Im2Cap/W_im2cap"
      }
    }
  }
}
node {
  name: "Im2Cap/W_im2cap"
  op: "VarHandleOp"
  attr {
    key: "_class"
    value {
      list {
        s: "loc:@Im2Cap/W_im2cap"
      }
    }
  }
  attr {
    key: "allowed_devices"
    value {
      list {
      }
    }
  }
  attr {
    key: "container"
    value {
      s: ""
    }
  }
  attr {
    key: "dtype"
    value {
      type: DT_FLOAT
    }
  }
  attr {
    key: "shape"
    value {
      shape {
        dim {
          size: 4096
        }
        dim {
          size: 500
        }
      }
    }
  }
  attr {
    key: "shared_name"
    value {
      s: "Im2Cap/W_im2cap"
    }
  }
}
node {
  name: "Im2Cap/W_im2cap/IsInitialized/VarIsInitializedOp"
  op: "VarIsInitializedOp"
  input: "Im2Cap/W_im2cap"
}
node {
  name: "Im2Cap/W_im2cap/Assign"
  op: "AssignVariableOp"
  input: "Im2Cap/W_im2cap"
  input: "Im2Cap/W_im2cap/Initializer/random_uniform"
  attr {
    key: "dtype"
    value {
      type: DT_FLOAT
    }
  }
  attr {
    key: "validate_shape"
    value {
      b: false
    }
  }
}
node {
  name: "Im2Cap/W_im2cap/Read/ReadVariableOp"
  op: "ReadVariableOp"
  input: "Im2Cap/W_im2cap"
  attr {
    key: "dtype"
    value {
      type: DT_FLOAT
    }
  }
}
node {
  name: "Im2Cap/b_im2cap/Initializer/Const"
  op: "Const"
  attr {
    key: "_class"
    value {
      list {
        s: "loc:@Im2Cap/b_im2cap"
      }
    }
  }
  attr {
    key: "dtype"
    value {
      type: DT_FLOAT
    }
  }
  attr {
    key: "value"
    value {
      tensor {
        dtype: DT_FLOAT
        tensor_shape {
          dim {
            size: 500
          }
        }
        float_val: 0.0
      }
    }
  }
}
node {
  name: "Im2Cap/b_im2cap"
  op: "VarHandleOp"
  attr {
    key: "_class"
    value {
      list {
        s: "loc:@Im2Cap/b_im2cap"
      }
    }
  }
  attr {
    key: "allowed_devices"
    value {
      list {
      }
    }
  }
  attr {
    key: "container"
    value {
      s: ""
    }
  }
  attr {
    key: "dtype"
    value {
      type: DT_FLOAT
    }
  }
  attr {
    key: "shape"
    value {
      shape {
        dim {
          size: 500
        }
      }
    }
  }
  attr {
    key: "shared_name"
    value {
      s: "Im2Cap/b_im2cap"
    }
  }
}
node {
  name: "Im2Cap/b_im2cap/IsInitialized/VarIsInitializedOp"
  op: "VarIsInitializedOp"
  input: "Im2Cap/b_im2cap"
}
node {
  name: "Im2Cap/b_im2cap/Assign"
  op: "AssignVariableOp"
  input: "Im2Cap/b_im2cap"
  input: "Im2Cap/b_im2cap/Initializer/Const"
  attr {
    key: "dtype"
    value {
      type: DT_FLOAT
    }
  }
  attr {
    key: "validate_shape"
    value {
      b: false
    }
  }
}
node {
  name: "Im2Cap/b_im2cap/Read/ReadVariableOp"
  op: "ReadVariableOp"
  input: "Im2Cap/b_im2cap"
  attr {
    key: "dtype"
    value {
      type: DT_FLOAT
    }
  }
}
node {
  name: "Hid2Vocab/W_H2vocab/Initializer/random_uniform/shape"
  op: "Const"
  attr {
    key: "_class"
    value {
      list {
        s: "loc:@Hid2Vocab/W_H2vocab"
      }
    }
  }
  attr {
    key: "dtype"
    value {
      type: DT_INT32
    }
  }
  attr {
    key: "value"
    value {
      tensor {
        dtype: DT_INT32
        tensor_shape {
          dim {
            size: 2
          }
        }
        tensor_content: "\364\001\000\00021\000\000"
      }
    }
  }
}
node {
  name: "Hid2Vocab/W_H2vocab/Initializer/random_uniform/min"
  op: "Const"
  attr {
    key: "_class"
    value {
      list {
        s: "loc:@Hid2Vocab/W_H2vocab"
      }
    }
  }
  attr {
    key: "dtype"
    value {
      type: DT_FLOAT
    }
  }
  attr {
    key: "value"
    value {
      tensor {
        dtype: DT_FLOAT
        tensor_shape {
        }
        float_val: -0.07999999821186066
      }
    }
  }
}
node {
  name: "Hid2Vocab/W_H2vocab/Initializer/random_uniform/max"
  op: "Const"
  attr {
    key: "_class"
    value {
      list {
        s: "loc:@Hid2Vocab/W_H2vocab"
      }
    }
  }
  attr {
    key: "dtype"
    value {
      type: DT_FLOAT
    }
  }
  attr {
    key: "value"
    value {
      tensor {
        dtype: DT_FLOAT
        tensor_shape {
        }
        float_val: 0.07999999821186066
      }
    }
  }
}
node {
  name: "Hid2Vocab/W_H2vocab/Initializer/random_uniform/RandomUniform"
  op: "RandomUniform"
  input: "Hid2Vocab/W_H2vocab/Initializer/random_uniform/shape"
  attr {
    key: "T"
    value {
      type: DT_INT32
    }
  }
  attr {
    key: "_class"
    value {
      list {
        s: "loc:@Hid2Vocab/W_H2vocab"
      }
    }
  }
  attr {
    key: "dtype"
    value {
      type: DT_FLOAT
    }
  }
  attr {
    key: "seed"
    value {
      i: 0
    }
  }
  attr {
    key: "seed2"
    value {
      i: 0
    }
  }
}
node {
  name: "Hid2Vocab/W_H2vocab/Initializer/random_uniform/sub"
  op: "Sub"
  input: "Hid2Vocab/W_H2vocab/Initializer/random_uniform/max"
  input: "Hid2Vocab/W_H2vocab/Initializer/random_uniform/min"
  attr {
    key: "T"
    value {
      type: DT_FLOAT
    }
  }
  attr {
    key: "_class"
    value {
      list {
        s: "loc:@Hid2Vocab/W_H2vocab"
      }
    }
  }
}
node {
  name: "Hid2Vocab/W_H2vocab/Initializer/random_uniform/mul"
  op: "Mul"
  input: "Hid2Vocab/W_H2vocab/Initializer/random_uniform/RandomUniform"
  input: "Hid2Vocab/W_H2vocab/Initializer/random_uniform/sub"
  attr {
    key: "T"
    value {
      type: DT_FLOAT
    }
  }
  attr {
    key: "_class"
    value {
      list {
        s: "loc:@Hid2Vocab/W_H2vocab"
      }
    }
  }
}
node {
  name: "Hid2Vocab/W_H2vocab/Initializer/random_uniform"
  op: "AddV2"
  input: "Hid2Vocab/W_H2vocab/Initializer/random_uniform/mul"
  input: "Hid2Vocab/W_H2vocab/Initializer/random_uniform/min"
  attr {
    key: "T"
    value {
      type: DT_FLOAT
    }
  }
  attr {
    key: "_class"
    value {
      list {
        s: "loc:@Hid2Vocab/W_H2vocab"
      }
    }
  }
}
node {
  name: "Hid2Vocab/W_H2vocab"
  op: "VarHandleOp"
  attr {
    key: "_class"
    value {
      list {
        s: "loc:@Hid2Vocab/W_H2vocab"
      }
    }
  }
  attr {
    key: "allowed_devices"
    value {
      list {
      }
    }
  }
  attr {
    key: "container"
    value {
      s: ""
    }
  }
  attr {
    key: "dtype"
    value {
      type: DT_FLOAT
    }
  }
  attr {
    key: "shape"
    value {
      shape {
        dim {
          size: 500
        }
        dim {
          size: 12594
        }
      }
    }
  }
  attr {
    key: "shared_name"
    value {
      s: "Hid2Vocab/W_H2vocab"
    }
  }
}
node {
  name: "Hid2Vocab/W_H2vocab/IsInitialized/VarIsInitializedOp"
  op: "VarIsInitializedOp"
  input: "Hid2Vocab/W_H2vocab"
}
node {
  name: "Hid2Vocab/W_H2vocab/Assign"
  op: "AssignVariableOp"
  input: "Hid2Vocab/W_H2vocab"
  input: "Hid2Vocab/W_H2vocab/Initializer/random_uniform"
  attr {
    key: "dtype"
    value {
      type: DT_FLOAT
    }
  }
  attr {
    key: "validate_shape"
    value {
      b: false
    }
  }
}
node {
  name: "Hid2Vocab/W_H2vocab/Read/ReadVariableOp"
  op: "ReadVariableOp"
  input: "Hid2Vocab/W_H2vocab"
  attr {
    key: "dtype"
    value {
      type: DT_FLOAT
    }
  }
}
node {
  name: "Hid2Vocab/b_H2vocab/Initializer/initial_value"
  op: "Const"
  attr {
    key: "_class"
    value {
      list {
        s: "loc:@Hid2Vocab/b_H2vocab"
      }
    }
  }
  attr {
    key: "dtype"
    value {
      type: DT_FLOAT
    }
  }
  attr {
    key: "value"
    value {
      tensor {
        dtype: DT_FLOAT
        tensor_shape {
          dim {
            size: 12594
          }
        }
        tensor_content: "\325H\345\275\000\000\000\000\302\017\327\300\353W5\277\273\371z\300\3359\020\301\"\t\022\300S>\221\300[e\214\300\273\"\005\301\325H\345\275gN\361\300\230\354\031\301\030\203\372\300\272\003%\301\037\251\006\301o\370\214\300\247\255\241\300\220F\336\300b\255\020\300\222\374O\300\203\200+\301\360\203c\300\301\211\211\300\255\243\220\277\344K\375\300\213\313\313\300\325T\344\300\250}\315\300\244\2276\301\025r\277\300Y\r\317\300ZO\256\277\275\306\034\300\014\036m\300c\364\327\300ai \301\003j&\300pl\321\300c\364\327\300\017p,\300\"o\211\300\3270\335\300\005\252\213\300\025\005\337\300k\265\230\300\354c<\3005\363\354\300\263Y\366\300zv\002\301\253\273\215\300\3359\020\301gN\361\300\035\222\250\300\256&P\300\256X\010\301\020^\014\301\314\007\213\300>|\237\300A\300\021\301\037\251\006\301\037\251\006\301`\216\224\300\272\321\331\300\364\016\315\300\256X\010\301O\240\274\300$h*\300\220\230V\300\345y\251\300R\326\334\300R\326\334\3008{\007\301\025\005\337\300q\242\346\300D \260\300\361~\245\300\263Y\366\300\256X\010\301\230\354\031\301,\320^\300\244\2276\301\263Y\366\300\203\200+\301w\325\016\301\272\003%\301\213\261\320\300\205Y\242\300\230\354\031\301@\313\332\300\234z\303\300?\217\243\300D \260\300\244\2276\301\025\005\337\300\244\2276\3011u\027\301\305|x\300b\327\034\301\234\215\r\301\203\200+\301\232_\354\300\234\215\r\301A\300\021\301\272\003%\301\372\265\263\300\264@\324\300[\221\241\300[\225\230\300\272\003%\301B\272\277\300\341\231\311\300zv\002\301\234\215\r\301\255h\311\300\266\031\350\300\336\027\243\300\234\343\276\300\273\"\005\301e\324\223\300j\214\261\300\263\020]\300\220\352l\300[\2338\300\244\2276\301\263Y\366\300\213\313\313\300\325T\344\3002\267\000\301\213\346\241\300n\220\330\300\344K\375\300\356F\001\301\263Y\366\300A\300\021\301\244\2276\301\021P\204\300\306\246\310\300\210q\300\300ai \301;N\277\300=q\243\300ai \301\231\276\253\300\240D\236\300G\341\005\301\007o\250\300\203\200+\301\231h\265\300\244\2276\301@R\025\301-\310\370\300\3575\314\300xC\013\301ai \301\304]\357\300~\036\236\300p\216\231\300\036F\315\3002\267\000\301\244\2276\301@R\025\301\203\200+\301\317z\326\300\243\177\264\300\020\231\256\300X\240\325\300\244\2276\301\203\200+\301s\202\221\300\244\2276\301U\276\003\301D\236\255\300\250\016L\300/\210u\3008{\007\301\256!\\\300\tL\206\300\203\200+\301\203\200+\301\244\2276\301\377\006\277\300\261\276\356\300\244\2276\301\272\003%\301\267\315\013\300\274\255\322\300A\300\021\301\220;\220\300\255h\311\300i*\352\300\272\003%\301\363\362\202\300\212d\272\300j:\263\300\345\251\266\300\210\323\364\300\340\262\255\300H\330\241\300\377\324x\300\341\355\315\300\203\200+\301\317o\023\301U\276\003\301\244\2276\3010\275\273\300\317o\023\301\3057\311\300\322\021\236\300\nB\330\300\027N\270\300X\240\325\300\244\2276\301\372\314\226\300\252\363\234\300\345F\261\300\216\314\264\300\3359\020\301\365\001\261\300\250\206\226\300Bn\234\300}\256\271\300\317o\023\301\356F\001\301\3525\230\300\325\205\324\300\241D\257\300[\336\225\300\203\200+\301xC\013\301\235E\216\300\300`\255\300\301\335\257\300\352\276S\300\203\200+\301\355\010\207\300\373#\367\300\352\231\342\300\242{\240\300\317o\023\301\272\003%\301b\327\034\301ai \301\374.\257\3008{\007\301*\270\323\3003\027\364\300\342j\270\300\230\354\031\301ai \301\355Bm\300\356F\001\301\341\231\311\300\030\203\372\300\306\333\231\300\330\261\211\300\244\2276\3011u\027\301G\341\005\301F{\235\300\244\2276\301 \027\003\301\020^\014\301\337\372\361\300J\235\276\300*\270\323\300\272\003%\301G\037\304\300\336\203\256\300\266\261\257\300@R\025\301\356\351\243\300\036;\n\301\244\2276\301ai \301\244\2276\301\337i\373\300\203\200+\301xC\013\301\014\232\225\300\203\200+\301\256X\010\301V,\000\301j\235\223\300A|\"\300m\202\206\300\272\003%\301zv\002\301+\005\236\300\263Y\366\300\244\2276\301b\327\034\301\344K\375\300\244\2276\301\317o\023\301@\335\273\300\234\314\333\300\244\2276\301\203\200+\301\337i\373\300\246\"\356\300_\214\335\300\203\200+\301\000-\301\300\020^\014\301\272\003%\301\246\"\356\300b\327\034\301\246\"\356\300\272\003%\301\244\2276\301b\327\034\301@\235\273\300b\327\034\301\316U\251\3001u\027\301\241\035\347\300f\031\257\300\211\357\322\300 \027\003\301s\007\247\300#\242\272\300\254\007\266\300\203\200+\301\233\316\353\300\244\2276\301\203\200+\301b\327\034\301\203\200+\3011u\027\301@R\025\301\244\2276\301_\214\335\300\210\323\364\300\203\200+\301@R\025\301\347\211\275\300\244\2276\301\017L\377\300\244\2276\301\027N\270\300\234\215\r\301-\310\370\300-\375\311\300Ox\213\300Y\236\305\300\"@\353\300\244\2276\301\234\215\r\301\r\253\362\300\"@\353\300K\224\365\300_`\240\3001u\027\301\032\016\251\300:$\334\300\250l\004\301\316\373\225\300w\325\016\301V,\000\301 \027\003\301ai \301\244\2276\301\203\200+\301\263\232\347\300`\300\276\300EC\252\300[\351\307\300\326\343\343\3001u\027\301E\245\336\300\334\354\301\300\322C\251\300VW\374\3002\325\306\300u7\201\300\273\"\005\301\371G\376\300\326\262\264\300b\327\034\301pl\321\300\273\036\273\300h\307\344\300k\006\343\300K\224\365\300\205\350\325\3002\267\000\301A\300\021\301xC\013\301\203\200+\301\312|\334\300\244\2276\301vl\322\300\356F\001\3012\267\000\301ai \301\315B\t\301\271\232\350\300\256X\010\301\230\354\031\301\272\003%\301VW\374\300\314\276\317\300p\260j\300G\341\005\301\002\274\300\300\020^\014\301\203\200+\301ai \301\210\323\364\300A\300\021\301@\310Q\300nD\243\300\244\2276\301L\010\232\300}\245\360\300\301$\253\300U\276\003\301ai \301@\335\273\300\242\030\233\300\024/\241\300h\307\344\300VW\374\300\241/\256\300\203\200+\301\000^\261\300\201.\313\300V,\000\301\017$\332\300\030\203\372\300\001\243\351\300\234\215\r\301k\243\267\300\356F\001\301\372R\263\300_\214\335\300\250l\004\301\367\365\305\300r\347z\300\314\035\351\300\347\330\252\300zv\002\301\037\305\341\300b\327\034\301\037\305\341\300\203\200+\301\263Y\366\300n\220\330\300\263Y\366\300Q\005\241\300\217\250\262\300\250\034\305\300\203\200+\301\244\2276\301\244\2276\301i*\352\300\272\003%\301\244\2276\3011u\027\301ai \301\244\2276\301\273\"\005\301\272\003%\301\360\350\335\300\336r\304\300n\220\330\300\337i\373\300\255\272\307\300X\203\244\300\037h\275\300\272\003%\301\230\354\031\301ai \301\247k\314\300\322C\251\300\325\301\247\300\337\021\325\300\336r\304\300\264@\324\300\373#\367\300\234\215\r\301w\325\016\301xC\013\301\244\2276\301\244\2276\301\337i\373\300C[\327\300\271\232\350\300\244\2276\301\234\215\r\301zv\002\301H/\312\300\244\2276\301\"@\353\300\032_\363\300ai \301\362\304\326\300\244\2276\301b\363\367\300\256X\010\301U\276\003\301C[\327\300\272\003%\301\263+\322\300\3359\020\3011u\027\301\036;\n\301\020^\014\301J\235\276\300\272\241\314\300\314\035\351\300_\342\274\300zv\002\301\275\033\177\300\344\246\206\300\324.\342\300zv\002\301w\325\016\301\317o\023\301\210\323\364\3002\325\306\300\203\200+\301\244\2276\301K\224\365\300W1\326\300\3359\020\301\203\200+\301\234\215\r\301A\300\021\301X\240\325\3005\242\242\300@R\025\3018{\007\301 \"\306\3001u\027\301\270\365\340\300 \027\003\3012\267\000\301Y\r\317\300\3270\335\300b\327\034\301\246\"\356\300b\327\034\301VW\374\300\272\003%\301\203\200+\301\325T\344\3001u\027\301b\327\034\301\036F\315\300ai \301\201.\313\300\256\314\211\300.t\320\3001u\027\301ai \301\345\333\001\301#\201\233\300\210\322\261\300\377\006\277\300j\346}\300$\310\337\300\244\242\371\300\023)\346\300\236k\263\300\3575\314\300\334\354\301\300\3361\323\300\373#\367\300\325T\344\300\244\2276\301@R\025\301\3270\335\300\323\253\275\300\252-\321\300\204b\313\300\373#\367\300ai \301zv\002\301\257:\250\300E\245\336\300\356F\001\301\244\2276\301VW\374\300\017L\377\300\347\211\275\300Y\r\317\300at\343\300\272\003%\301VW\374\3001u\027\301xC\013\301y\177\274\300\365\370\236\300\001\243\351\300ai \301W1\326\300\3057\311\300\037\251\006\301K\224\365\300\317o\023\301\r\253\362\3001u\027\301ai \301\037\251\006\301\3057\311\300\337i\373\3008{\007\301\352\231\342\300\337i\373\300A\300\021\301\352\316\263\300\244\2276\301\244\2276\301\244\2276\301\036;\n\301ai \301\244\2276\3011u\027\301\244\2276\301@R\025\301\273\"\005\301\367\365\305\300\036;\n\301\256X\010\301\337i\373\300\203\200+\301\244\2276\301\272\003%\301\255\272\307\300\001\243\351\300\341\231\311\300G\341\005\301\014=\241\300\344K\375\300w\325\016\301b\363\367\300\210\323\364\300\006)\247\300\037\305\341\300P\207\267\300xC\013\301X\240\325\300\203\200+\301K\224\365\300\272\003%\301\356F\001\301\244\2276\301-\310\370\300\244\2276\301\203\200+\301VW\374\300\222&\316\3001u\027\301\250l\004\301\201.\313\300\213\261\320\300i*\352\3005\363\354\300\364\217\340\300\017L\377\300-\310\370\300\325T\344\300\036;\n\301\254\203\216\300\304]\357\300ai \3015\363\354\3008{\007\301\347\302\234\300\341\361\304\300\025\005\337\300\356F\001\301\250l\004\301-\375\311\300_\214\335\300b\327\034\301\337i\373\300\276t\323\300w\325\016\301ai \301\250l\004\301\244\2276\301\244\2276\301\261\276\356\300\356F\001\301\244\2276\301\244\2276\301\037\251\006\301\315B\t\301c\364\327\300\345\333\001\301@R\025\3015 \246\300\302\017\327\3008{\007\301\001\243\351\300\247k\314\300\317o\023\301\037\251\006\301\272\003%\301\030\203\372\300H/\312\300ai \301\375\377\357\300\256X\010\301\371G\376\300M\030\310\300\334\354\301\300\020^\014\301}\245\360\300\3359\020\301@R\025\301gN\361\300\034^\307\300\203\200+\301\345\333\001\301\3359\020\301\317o\023\301\244\2276\301\315B\t\301%+\220\300\250l\004\301ai \301\234\215\r\301\244\2276\301\230\354\031\301\244\2276\301xC\013\301\203\200+\301ai \3012\267\000\301n\220\330\300gN\361\300\345\333\001\301K\224\365\3005\363\354\300\272\003%\301\244\2276\301\261\276\356\300\244\2276\301G\341\005\301\020^\014\3018{\007\301ai \301\244\2276\301\304]\357\300\210q\300\300\246\"\356\3008{\007\301\272\003%\301@R\025\301@R\025\301\033^\253\300q\242\346\300\317o\023\301\203\200+\301\272\003%\301ai \301b\363\367\300\252-\321\300b\327\034\3011u\027\301\217\025\223\300\244\2276\301\017L\377\300\030\264\352\300\203\200+\301\272\003%\301\244\2276\301\345\333\001\301\037\251\006\301G\037\304\300\037\251\006\301b\327\034\301\244\2276\301\244\2276\301V,\000\301\344K\375\300\032_\363\300\276t\323\300\030\264\352\300\221\000\314\300V,\000\301\345\333\001\301\244\2276\3012\267\000\301xC\013\301ai \301\272\003%\301\244\2276\301w\325\016\301q\242\346\300\273\"\005\301@R\025\301A\300\021\301xC\013\301W1\326\300\201/\331\300b\327\034\301\317o\023\301\230\354\031\301q\242\346\300\244\2276\301\223\237\301\300\037\251\006\3011u\027\301@\313\332\300\030\360\275\300eO\267\300\244\2276\301G\341\005\301\344K\375\300\244\2276\301\203\200+\301\030\203\372\300\036F\315\300\364\217\340\300\317o\023\301\036;\n\301\244\2276\301\317o\023\301\203\200+\301S\307\304\300(u\241\300@R\025\301k\224\312\300\362\304\326\300@R\025\301\354u\333\300\234\314\333\300\317o\023\301A\300\021\301\203\200+\301\203\200+\301\247k\314\300G\341\005\301b\327\034\301w\325\016\301\271\232\350\300\203\200+\301\203\200+\301\272\003%\301\020^\014\301U\276\003\301ai \301\337\030\261\300b\327\034\3011u\027\301\244\2276\3011u\027\301\314X\325\300 \027\003\301A\300\021\301\244\2276\301\213\261\320\300Y\265\250\300R\337\245\300C\310\232\300\244\2276\301b\327\034\301\203\200+\301b\327\034\301\244\2276\301\3359\020\301@R\025\301\345\333\001\301@\313\332\300\244\2276\301\364\217\340\300K\224\365\300\272\003%\301j:\263\300\337\372\361\300A\300\021\3012\267\000\301\020^\014\301\3270\335\300\344K\375\300B\272\277\300\203\200+\301w\325\016\301\206\211\355\300\030\264\352\300\010f\337\300\272\003%\301b\327\034\301 \306\301\300\036;\n\301\203\200+\301\272\003%\301-\310\370\300\3359\020\301\304\\\341\300\177\341\300\300\266\304\246\300:w\332\300\200\220\262\300\371G\376\300}\245\360\300\304]\357\300\317o\023\301\233\316\353\300b\327\034\301\246\"\356\300\230\354\031\301k\243\267\300ai \301\205\350\325\300\337\372\361\3001u\027\301\3359\020\301w\325\016\301\244\2276\301\244\2276\301\244\2276\301w\325\016\301\244\2276\301\266\243\250\300:w\332\300\203\200+\301Ok\267\300\337\372\361\300\203\200+\301b\363\367\300:$\334\300\340\262\255\300ai \301h\307\344\300A\300\021\301VW\374\300\317o\023\301ai \301\002w\310\3001u\027\301\030\203\372\300\002\274\300\300d=\266\300\273\"\005\3018{\007\301\203\200+\301V,\000\301\244\2276\301\203\200+\3011u\027\301A\300\021\3013\027\364\300ai \301\244\2276\301\024\003\300\300ai \301\266\031\350\300\244\2276\301\244\2276\301\371G\376\300\025\005\337\300\032_\363\300\004S\301\300E\245\336\3001u\027\301\244\2276\301\017L\377\300\256X\010\301N\322\265\300ai \301\304\\\341\300\246\"\356\300\244\2276\301\250l\004\301\244\2276\301\206\211\355\300V,\000\301U\276\003\301\261\340\266\3002\267\000\301\373\321\236\300\017$\332\300\274\255\322\3001u\027\301*\034j\3001u\027\301\371G\376\300\371G\376\300\304\\\341\300\326\343\343\300E7\320\300\317z\326\300\266\261\257\300\230\354\031\301\263\253\321\300\234\314\333\300\246\"\356\300\337i\373\300\304]\357\300\244\2276\301\252-\321\300k\006\343\300VW\374\300\244\2276\301\244\2276\301\337i\373\300\036;\n\3011u\027\3018{\007\301n\220\330\300\233\316\353\300\325\214\233\300\364\336\236\300\250l\004\301@R\025\301*\007\301\300\244\2276\301\r\253\362\300\344K\375\300\203\200+\301\272\003%\301}\245\360\300\203\200+\3015\363\354\300\373#\367\300C[\327\300\203\200+\301\214L\300\300\244\2276\301\3359\020\301\261\276\356\3005\363\354\300\246\211\302\300\230\354\031\301\250l\004\301\3359\020\301b\327\034\301\017L\377\300\263+\322\300xC\013\301\036;\n\301$\310\337\300\030\264\352\300\354\252\254\300@R\025\301\244\2276\301\250l\004\301\270\365\340\300\036;\n\301w\325\016\301\251_\316\300\256X\010\301\007o\250\300\233\003\275\300\244\2276\301\345\333\001\301\036;\n\301{\261\345\300\021,\231\300\0100d\300D\236\255\300\244\2276\301U\276\003\301b\327\034\301\345\333\001\3011u\027\301\274\255\322\300\356F\001\301\276t\323\300\222&\316\300\244\242\371\300^\357\320\300\241\035\347\300$\310\337\300k\224\312\300\207N\306\300\037\251\006\301\344K\375\300b\363\367\3001u\027\301\271\232\350\300\317o\023\301\230\354\031\301\317z\326\300A\300\021\301ai \301@R\025\301\345\333\001\301}\245\360\300$ \333\300\244\2276\301ai \301xC\013\301xC\013\301w\325\016\301n\220\330\300(\330\314\300b\327\034\301\337i\373\300\244\2276\301\230\354\031\301\251_\316\300$\375\231\300\304]\357\300\203\200+\301@R\025\3012\267\000\301\247k\314\300\203\200+\301\244\2276\301\367H\304\300\234\215\r\301\337\372\361\300b\327\034\301\3359\020\301\360\350\335\300\203\200+\301\020^\014\301\244\2276\301gN\361\3008{\007\301\317o\023\301\372R\263\300\3359\020\301\244\2276\301ai \301\244\2276\301\244\2276\301\244\2276\301\246\"\356\300\272\003%\301\244\2276\301\272\003%\301\037\251\006\301K\224\365\300\373#\367\300\232_\354\300\203\200+\301\203\200+\301\230\354\031\301ai \3012\267\000\301\020^\014\301\234\215\r\301\341\361\304\300k\006\343\300\030\203\372\300\203\200+\301A\300\021\301\244\2276\301\244\2276\301\234\215\r\301\244\2276\301\334\226\313\300\3359\020\301[\351\307\300\203\200+\301\230\354\031\301\3270\335\300\244\2276\301\230\354\031\301\010f\337\300\3359\020\301\244\2276\3011u\027\301\263Y\366\300w\325\016\301\230\354\031\301\037\251\006\301b\327\034\301\272\003%\301\t\n\260\300\230\354\031\301\213\313\313\300:$\334\300\272\003%\301-\310\370\300vl\322\300\234\215\r\301c\364\327\300\203\200+\301\3457\236\300\234\215\r\301\r\253\362\300\244\2276\301{\261\345\300M\030\310\300\244\2276\301K\224\365\300\203\200+\301\244\2276\3011u\027\301f\031\257\300K\224\365\3003>\274\300\364Q\303\300\203\200+\301@\235\273\300\315B\t\301\203\200+\301ai \301G\341\005\301\3359\020\301\020^\014\301\244\2276\301\010f\337\300b\363\367\300w\325\016\301R\326\334\300\244\2276\3011u\027\301K\224\365\300\244\242\371\300K\224\365\300\272\003%\301\244\2276\301ai \301\272\003%\301\020^\014\301\210\323\364\300\244\2276\301\256X\010\301\234\215\r\301\272\003%\301\203\200+\301\3359\020\301\244\2276\301\272\003%\301\005o\237\300\244\2276\301A\300\021\301\203\200+\301 \"\306\300\203\200+\3018{\007\301\375\377\357\300\201/\331\300xC\013\301K\224\365\300\317o\023\3011u\027\301\317o\023\301@R\025\3011u\027\301xC\013\301ai \301\314X\325\300\356F\001\301A\300\021\301b\363\367\300\r\253\362\300\244\2276\301A\300\021\301xC\013\3011u\027\301\"@\353\300\371G\376\300}\245\360\300\336r\304\3001u\027\301\244\2276\301b\327\034\301p+\340\300@R\025\301\244\2276\301\272\003%\301\256X\010\301vl\322\300\337i\373\300\261\276\356\300\364Q\303\300\r\253\362\300\321\372\312\300\364\217\340\300Y\r\317\300\304]\357\300@R\025\301\272\003%\301\244\2276\301\210\323\364\300\244\2276\301zv\002\301\344\330\262\300\234\215\r\301\364Q\303\300\032_\363\300w\325\016\301xC\013\301w\325\016\3011u\027\3012\325\306\300\244\2276\301\244\2276\301%\231\316\300 \027\003\301\244\2276\301\244\2276\301\030\264\352\300\244\2276\301\326\343\343\300\234\215\r\301U\276\003\301\250l\004\301w\325\016\301\203\200+\301\244\2276\301\272\003%\301\244\2276\301\244\2276\301\234\215\r\301b\327\034\301\315B\t\301 \027\003\301\273\"\005\3015\363\354\300ai \301\344K\375\300\244\2276\301ai \301\244\2276\301\272\003%\301}\245\360\300\244\2276\301\250l\004\301q\242\346\300\203\200+\301}\245\360\300\203\200+\301\3359\020\301\244\2276\301\373#\367\3008{\007\301\307\023\302\300\203\200+\301b\363\367\300\337\372\361\300\315B\t\301\244\2276\301\203\200+\301\317z\326\300\344K\375\300-\310\370\3001u\027\301\207\314\303\300\266\031\350\300V,\000\301x\247\327\300A\300\021\301xC\013\301\244\2276\301h\307\344\300\203\200+\301\203\200+\301\203\200+\301\244\2276\301@R\025\301\304]\357\300\315B\t\301\244\2276\301@R\025\301\317o\023\301\017L\377\300U\276\003\301\244\2276\301\036;\n\301ai \301\244\2276\301\272\003%\301V,\000\301\203\200+\301\230\354\031\301\272\003%\301b\327\034\301\244\2276\301vl\322\300\263\232\347\300G\341\005\301\326\343\343\300U\276\003\301\347\211\275\300\203\200+\301\256X\010\301_\214\335\300\203\200+\301\244\2276\301\203\200+\301G\341\005\3012\267\000\301\"@\353\300\221\010S\300\200)\303\300\000-\301\300H/\312\300\317o\023\301\032_\363\300\022H\317\300\234\215\r\301A\300\021\301\337i\373\300\273\"\005\301\230\354\031\301\356F\001\301\020^\014\3018{\007\301zv\002\301\244\2276\301\244\2276\301b\363\367\300@R\025\301\203\200+\301G\341\005\301\251G\305\300@R\025\301A\300\021\301\223\237\301\300E7\320\300\244\2276\301@R\025\301\244\2276\301\317o\023\301\315B\t\3011u\027\301\272\003%\301\3359\020\301xC\013\301\3270\335\300\3359\020\301b\327\034\301ai \301\203x\262\300\365T\271\300\244\2276\301\230\354\031\301b\327\034\301\244\2276\301\244\2276\301\244\2276\301\234\215\r\301\244\2276\3011u\027\301\244\2276\301\272\003%\301\222W\276\300\317z\326\3003\027\364\300\244\2276\301\244\2276\301U\276\003\301\234\215\r\301\234\215\r\301\373#\367\300\230\354\031\301\244\2276\3013\027\364\300^\357\320\300\315B\t\301xC\013\3012\267\000\301\203\200+\301\244\2276\301b\327\034\301\244\2276\301x\247\327\300-\310\370\300\244\2276\301\244\2276\301\244\2276\301\272\003%\301\244\2276\3011u\027\301\244\2276\301\244\2276\301\244\2276\301\244\2276\301-\310\370\300\244\2276\301q\242\346\3001u\027\301\244\2276\301\244\2276\301b\327\034\301\272\003%\301A\300\021\301\230\354\031\301b\327\034\301@R\025\301\203\200+\301\203\200+\301zv\002\301ai \301\272\003%\301\203\200+\301\203\200+\301\244\2276\301\244\2276\301\371G\376\3001u\027\301ai \301VW\374\300b\327\034\301@R\025\301\244\2276\301\244\242\371\300\037\251\006\301\371G\376\300A4\265\300\375\377\357\300\244\2276\301\276t\323\300\345\333\001\301ai \301 \027\003\3011u\027\301w\325\016\301-\310\370\300ai \301\251_\316\300G\341\005\301\020^\014\301\030\203\372\300\270\365\340\300\201.\313\300ai \301\266\031\350\300\250l\004\301\203\200+\301ai \301\020^\014\301\264@\324\300`\300\276\300\365\001\261\300\203\200+\301\244\2276\301\017L\377\300\230\354\031\301\244\2276\301\201/\331\300\341\355\315\300\315B\t\301\317o\023\301V,\000\301w\325\016\301\203\200+\301\250}\315\300G\341\005\301\272\003%\301\244\2276\301\302\017\327\300\244\2276\301\344K\375\300\273\"\005\301\356F\001\301^\357\320\300\037\251\006\301\220F\336\300\304]\357\300\232_\354\300b\327\034\301\244\2276\301\272\003%\301\261\276\356\300\317o\023\301\203\200+\301\244\2276\301\230\354\031\301\030\203\372\3002\267\000\301P\207\267\300\002w\310\300\017$\332\300R\326\334\300\272\003%\301\037\251\006\301VW\374\300\030\264\352\300G\341\005\3011u\027\301\n\323\316\300\256X\010\301\244\2276\301\244\2276\301\037\251\006\301\230\354\031\301K\224\365\300vl\322\300\244\2276\301\203\200+\301zv\002\301\344K\375\300\037\251\006\301\"@\353\300\261\276\356\300@R\025\301\203\200+\301A\300\021\301zv\002\301\272\003%\3011u\027\301\272\003%\301\244\2276\301pl\321\300A\300\021\301\203\200+\3012\340\272\300A\300\021\301}\245\360\300\203\200+\301\205\350\325\300\272\003%\301\203\200+\301\244\2276\301\304]\357\300\037\251\006\301U\276\003\301\263Y\366\300@R\025\301\244\2276\301E\245\336\3003\027\364\300\373#\367\3001u\027\3018{\007\301\247k\314\300\272\003%\301\244\2276\3011u\027\301\244\2276\301\244\2276\301\030\203\372\300U\276\003\301ai \301A\300\021\301\244\2276\301\244\2276\301\203\200+\301G\341\005\301\244\2276\301}\245\360\300\244\2276\301\244\2276\301\250l\004\301\233\316\353\300i*\352\300\315B\t\301\337i\373\300U\276\003\301zv\002\301\203\200+\301\273\"\005\301\220F\336\300b\327\034\3011u\027\301\244\242\371\300G\341\005\301\272\003%\301\244\2276\301\244\2276\301\356F\001\3018{\007\301\317o\023\301\203\200+\301\234\215\r\301b\327\034\301\244\2276\301\017L\377\300\272\003%\301\020^\014\301-\310\370\300\373\330\256\300gN\361\300\244\2276\301\271\232\350\300\263Y\366\300b\327\034\301\244\2276\301xC\013\301\272\003%\301\244\2276\301\304]\357\300K\224\365\300b\327\034\301b\327\034\301\203\200+\301b\327\034\301b\327\034\301\272\003%\301ai \301b\327\034\3011u\027\301\036;\n\301\315B\t\301\017L\377\300\244\2276\3011u\027\301b\327\034\301\244\2276\301\274\255\322\300\244\2276\301\244\2276\301\234\215\r\301\3359\020\301\315B\t\301\203\200+\301\273\"\005\301\203\200+\301\230\354\031\301\315B\t\301ai \301\244\2276\301\244\2276\301b\327\034\301\244\2276\301\272\003%\301S\307\304\300\230\354\031\301\244\2276\301\244\2276\301{F\275\300xC\013\301b\327\034\301\244\2276\301A\300\021\301\234\215\r\301\215\313\324\300\256X\010\301xC\013\301w\325\016\301\037\251\006\301b\327\034\301b\363\367\300\256X\010\301\337i\373\300\272\003%\301 \027\003\301G\341\005\301b\327\034\301\244\2276\301}\245\360\300\211*\277\3002\340\272\300b\363\367\300\246\"\356\300\317o\023\301G\341\005\301\230\354\031\3011u\027\301\317o\023\301\3359\020\301q\242\346\300\203\200+\301U\220\260\300\272\003%\301b\327\034\301\030\203\372\300\337i\373\300\203\200+\301\036F\315\300E7\320\300\251_\316\3001u\027\301\334\226\313\300\3359\020\301\230\354\031\301\337\372\361\300\203\200+\301\020^\014\301U\276\003\301\244\2276\301\244\2276\301\272\003%\301V,\000\301xC\013\301\371G\376\300\250l\004\301b\327\034\301\244\2276\301xC\013\301\032_\363\300[\351\307\300\325T\344\300\315B\t\301w\325\016\301ai \3013\027\364\300b\327\034\301\203\200+\301\203\200+\301\215\302\251\300\203\200+\301 \027\003\301\234\215\r\301ai \301\273\"\005\301\272\003%\301ai \3018{\007\301ai \301\273\"\005\301\244\2276\301\364\217\340\300\356F\001\301xC\013\301\256X\010\301xC\013\301b\327\034\301ai \301\272\003%\301\272\003%\301\272\003%\301ai \301ai \301\272\003%\301\272\003%\301b\327\034\301\203\200+\301\250l\004\301\244\2276\301\244\2276\301q\242\346\300\203\200+\301\315B\t\301\317o\023\301\203\200+\301\203\200+\301b\327\034\301ai \301\272\003%\301\r\253\362\300\020^\014\3011u\027\301ai \301@R\025\301A\300\021\301A\300\021\301\345\333\001\301ai \301\317o\023\301\244\2276\301\244\2276\301\030\264\352\3008{\007\301ai \301\371G\376\300 \027\003\301\317o\023\301gN\361\300\244\2276\301\315B\t\301\272\003%\301xC\013\301\244\2276\301\233\316\353\300n\220\330\300R\261\302\300U\276\003\301\036;\n\301-\310\370\300\256X\010\301\203\200+\301\244\2276\301\250l\004\301x\240\252\300w\325\016\301\234\215\r\301@R\025\301\241\035\347\300}\245\360\300\317o\023\301\315B\t\3011u\027\301\203\200+\301\244\2276\301\272\003%\301\3359\020\301\244\2276\301xC\013\301\364Q\303\300\3359\020\301\3359\020\301\317o\023\301ai \301\244\2276\301\272\003%\301\244\2276\301\272\003%\301-\310\370\300\203\200+\301\203\200+\301\244\2276\301ai \301\244\2276\301\272\003%\301ai \301\244\2276\301\234\215\r\301\036;\n\301\203\200+\301+b\302\300w\325\016\301b\327\034\301\244\2276\301ai \301ai \301\244\2276\301\036;\n\301\244\2276\301\244\2276\301\006)\247\300-\375\311\300\315B\t\301\030\264\352\300\203\200+\301\256X\010\3011u\027\301\273\"\005\301\315B\t\301ai \301ai \301\244\2276\301G\341\005\301@R\025\301\203\200+\301\244\2276\301\244\2276\301\020^\014\301\203\200+\3012\340\272\300\3359\020\301\337i\373\300\272\321\331\300\231h\265\300\036;\n\301\3359\020\301\234;\345\300\244\2276\301\272\003%\301A\300\021\301ai \301b\327\034\301ai \301\244\2276\301\244\2276\3017\200\331\300\032_\363\300u\307\312\300\234\215\r\301H/\312\300\203\200+\301K\224\365\300ai \301G\341\005\301\203\200+\301W1\326\300\203\200+\301A\300\021\301\272\003%\301\244\2276\301-\310\370\300\037\347\251\300\203\200+\301\244\242\371\300[\351\307\300\263\232\347\300\273\"\005\301\360\350\335\300\203\200+\301\337i\373\300\244\2276\301\326\343\343\300K\224\365\300\203\200+\301\347\211\275\300\037\251\006\301\317o\023\301\036;\n\3011u\027\3018{\007\301\230\354\031\301\273\"\005\301\230\354\031\301\001\243\351\300\230\354\031\301\3270\335\300w\325\016\3013\027\364\300\244\2276\301\3359\020\301\271\232\350\300V,\000\301@R\025\301\244\2276\301ai \301\244\2276\301\272\003%\301\203\200+\301\203\200+\301\020^\014\301G\341\005\301\244\2276\301\030\264\352\300\273\"\005\301zv\002\3011u\027\301w\325\016\301\244\2276\301\263Y\366\300\272\321\331\300\220F\336\300\345\333\001\301\371G\376\300VW\374\300\036;\n\301@R\025\301\226\336\277\300\272\003%\301A\300\021\301b\327\034\301\036;\n\301\203\200+\301}\245\360\300\315B\t\3018{\007\301\317z\326\300\334\226\313\300xC\013\301\234\215\r\301\203\200+\301b\327\034\301A\300\021\301ai \301\244\2276\301~\224\201\300\037\251\006\301\371G\376\300\017L\377\300\244\2276\301\037\251\006\301\244\2276\301ai \301\215\314\271\300ai \3013>\274\300ai \301\036;\n\301&\374\323\300\244\2276\301V,\000\301\234\215\r\301ai \301\244\2276\301V,\000\301\244\2276\301b\363\367\300\203\200+\301\203\200+\301b\327\034\3011u\027\301\244\2276\301U\276\003\301\261a\312\300A\300\021\301V,\000\301\345\333\001\301w\325\016\301A\300\021\301\345\251\266\300\n\323\316\3003\027\364\300A\300\021\301}\245\360\300\244\2276\301\244\2276\301A\300\021\301\203\200+\301\230\354\031\301\244\2276\301U\276\003\301\017\250\306\300\244\2276\301ai \301\220F\336\300\037\251\006\301\234\215\r\301\356F\001\301-\310\370\3002\267\000\301\203\200+\301\244\2276\301\244\2276\301b\327\034\301w\325\016\301@R\025\301\244\2276\301\256X\010\301VW\374\300xC\013\301\272\003%\301\324.\342\300b\327\034\301\312|\334\300\030\264\352\30080\307\300\020^\014\301ai \301-\375\311\300 \027\003\301ai \301\315B\t\301\244\2276\301\244\2276\301\230\354\031\301\030\264\352\300 \027\003\301\263\232\347\300\251_\316\300\022H\317\300\036;\n\301\263Y\366\300\317o\023\301_\214\335\300\344K\375\300\272\003%\301\371G\376\300\376\352\233\300E\245\336\300\317o\023\301\317o\023\301@R\025\301\337i\373\300\244\2276\301\314\035\351\300:$\334\300\3361\323\3008{\007\301\203\200+\301\273\"\005\301\244\2276\301\371G\376\300\256X\010\301\356F\001\301\230\354\031\30180\307\300\261\276\356\300\315B\t\301\n\352\261\300A\300\021\301\317o\023\301\375\377\357\300\230\354\031\301\203\200+\301\317o\023\301\244\2276\301R\326\334\300b\327\034\301\364\217\340\300b\327\034\301\r\253\362\300\244\2276\301b\327\034\301V,\000\301\244\242\371\300\244\2276\301V,\000\3011u\027\3013\027\364\300\244\2276\301U\276\003\301\244\2276\301\272\003%\301\244\2276\301VW\374\300\230\354\031\301ai \301\244\2276\301\244\2276\301\203\200+\301\300`\255\300\244\2276\301\317o\023\301A\300\021\301ai \301\356F\001\3018{\007\301\203\200+\301@R\025\301\272\003%\301\3270\335\300ai \301b\327\034\301\244\2276\301\244\2276\301\244\2276\301\244\2276\301\244\2276\301@R\025\301}\245\360\300\222W\276\300\315B\t\301\3359\020\301\244\2276\3013\027\364\300\244\2276\301\234\215\r\301\030\264\352\300ai \301G\341\005\301\244\2276\3018{\007\301\244\2276\301\230\354\031\301b\327\034\301_\214\335\300\250l\004\301U\276\003\301\203\200+\301\325T\344\300\315B\t\301\203\200+\301\020^\014\301\244\2276\301\244\2276\301w\325\016\301\244\2276\301\317o\023\301\244\2276\301\244\2276\301@R\025\301\244\2276\301\272\003%\301G\341\005\301xC\013\301\203\200+\301\317o\023\301 \027\003\301\317o\023\301\203\200+\301G\341\005\301gN\361\300\203\200+\301n\220\330\300h\307\344\300zv\002\3013\027\364\300\244\2276\301\030\264\352\300\272\003%\301\244\2276\301_\342\274\300\272\003%\301ai \301\256X\010\301\244\2276\301 \027\003\301@R\025\301A\300\021\301@R\025\301\203\200+\301xC\013\301\244\2276\301\270\365\340\300\203\200+\301\244\2276\301\272\003%\301@R\025\301\r\253\362\300\326\343\343\3001u\027\301\020^\014\301\203\200+\301\230\354\031\301G\341\005\301\244\2276\301\230\354\031\301\244\2276\301\230\354\031\301\230\354\031\301\203\200+\301b\327\034\301ai \301\244\2276\301\244\2276\301\020^\014\301ai \301\213\261\320\300\272\003%\301\244\2276\301b\327\034\3011u\027\301\203\200+\301\036;\n\301\354u\333\300\272\003%\301\337i\373\300\020^\014\301\272\003%\301\244\2276\301ai \301\315B\t\301\317o\023\301\037\251\006\301\222&\316\300\234\314\333\300ai \301b\327\034\3011u\027\301\001\243\351\300\272\003%\301\203\200+\301\315B\t\3013\027\364\300\315B\t\301\203\200+\301\244\2276\301A\300\021\301\317o\023\301\244\2276\301b\327\034\301q\242\346\300\201/\331\300\250}\315\300ai \301\203\200+\301ai \301\230\354\031\301zv\002\301:w\332\300\244\2276\301G\341\005\301-\310\370\300\244\2276\301\317o\023\301\256X\010\301\244\2276\301\244\2276\301\244\2276\301A\300\021\3011u\027\301\244\2276\301 \027\003\301\317o\023\301b\327\034\301\203\200+\301\250l\004\301\317o\023\301\364\217\340\300\203\200+\301h\307\344\300\036;\n\301\317o\023\301\315B\t\3011u\027\301\244\2276\301 \027\003\301\234\215\r\301\254\007\266\300@\313\332\300\037\251\006\301W1\326\300\261\276\356\300$\236\251\300\030\264\352\300ai \301\210\323\364\300\251_\316\300\023)\346\300\337i\373\300ai \301\263Y\366\300ai \301\244\2276\301\203\200+\301k\006\343\300\317o\023\301\241\035\347\300\020^\014\301\315B\t\301\272\003%\301\247k\314\300\244\2276\301b\327\034\301\203\200+\301\344K\375\300b\327\034\301\272\003%\301\272\003%\301U\276\003\301\203\200+\301@R\025\301ai \301\272\003%\3012\267\000\301A\300\021\301ai \301\337\372\361\300\244\2276\301\272\003%\301w\325\016\301B\221\177\300\203\200+\301\3359\020\301A\300\021\3011u\027\3018{\007\301\230\354\031\301\270\365\340\300\203\200+\301\272\003%\301\272\003%\301\020^\014\301\3359\020\301b\327\034\301ai \301\230\354\031\301gN\361\300\203\200+\301\244\2276\301V,\000\301.t\320\300\272\003%\301\273\"\005\3018{\007\301\345\333\001\3011u\027\301\244\2276\301\244\2276\301G\341\005\301\230\354\031\301\244\2276\301\036;\n\301\364\016\315\300\272\003%\3011u\027\301\317o\023\301\325T\344\300@R\025\301\203\200+\301\375\377\357\300\244\2276\301\344K\375\300\317o\023\301\3359\020\301\317o\023\301ai \3011u\027\301\272\003%\301\373#\367\300\032_\363\300\244\2276\301\232_\354\300b\327\034\301\234\215\r\301b\327\034\301\244\2276\301b\327\034\301}\245\360\300\037\305\341\300\244\2276\301G\341\005\301\234\215\r\301\302\017\327\300b\363\367\300\272\003%\301\3359\020\301\244\2276\301\244\2276\301\272\003%\301\244\2276\301\203\200+\301\244\2276\301\244\2276\301\244\2276\3018{\007\301\344K\375\300\312|\334\300\211\357\322\300x\247\327\300\272\003%\301\317o\023\301\203\200+\301gN\361\300ai \301ai \301\272\003%\301ai \301\203\200+\301@R\025\301b\327\034\3017\200\331\300\3359\020\301W1\326\300\244\2276\301\244\2276\301b\327\034\301\244\2276\301\244\2276\301\020^\014\301w\325\016\301\3359\020\301\203\200+\301\244\2276\301\272\003%\301ai \301xC\013\301b\363\367\300b\327\034\301\234\215\r\301\203\200+\301 \027\003\301\244\2276\301ai \301\030\203\372\300\234\215\r\301\037\251\006\301M\030\310\300\272\003%\301\272\003%\301\020^\014\3011u\027\301\244\2276\301\230\354\031\301zv\002\301\244\2276\301\244\2276\3011u\027\301\273\"\005\301\037\305\341\300\244\2276\301\3359\020\301\244\2276\301b\327\034\301\244\2276\301bX\266\300\001\243\351\300\263\253\321\300\272\003%\3011u\027\301b\327\034\301-\310\370\300\244\2276\301\244\2276\301\244\2276\301@R\025\301\244\2276\301\234\215\r\301\244\2276\301zv\002\301@R\025\301\213\313\313\300\037\305\341\300\272\003%\301\203\200+\301\317o\023\301\244\2276\301\244\2276\3011u\027\301ai \301\244\2276\301\230\354\031\301\203\200+\3012\267\000\301\337\372\361\300\203\200+\301\037\251\006\301\230\354\031\3012\267\000\3012\267\000\301\230\354\031\301G\341\005\301p+\340\300\315B\t\301b\363\367\300b\327\034\301ai \301xC\013\301\256X\010\3011u\027\301\203\200+\301\324.\342\300 \027\003\301b\327\034\301\272\003%\3018{\007\301\020^\014\301\225\337\330\300\203\200+\301\244\2276\301\337i\373\300\030\264\352\300\244\2276\3012\267\000\301\323\253\275\300\203\200+\301ai \301\244\2276\301\317o\023\301\244\2276\301\244\2276\3018{\007\301\244\2276\301\362\354\265\300\020^\014\301\203\200+\301\203\200+\301\206\211\355\300\337\372\361\300\337i\373\300\356F\001\301\203\200+\301\272\003%\301\3359\020\301\023)\346\300ai \301\203\200+\301\337i\373\300\203\200+\301b\327\034\301\272\003%\301h\307\344\300\272\003%\301\356F\001\301A\300\021\301\234\215\r\301\364\217\340\300\317z\326\300\364\016\315\300\203\200+\301 \027\003\301\315B\t\301\244\242\371\300\244\2276\301ai \301ai \301ai \301\203\200+\301\020^\014\301\203\200+\301\234\215\r\301VW\374\300zv\002\301w\325\016\301\030\203\372\300@R\025\301b\327\034\3011u\027\301\203\200+\301s\353\321\300b\363\367\300\371G\376\300\317o\023\301\037\305\341\300\317o\023\301\356F\001\301\036;\n\301\256X\010\301@R\025\301\244\2276\301\337i\373\300\317z\326\300\244\2276\301\244\2276\301b\327\034\301\234\215\r\301\244\2276\301\337i\373\300\244\2276\301\203\200+\301\3359\020\3013\027\364\300ai \301\230\354\031\301\203\200+\301@R\025\301\210\323\364\300\244\2276\301\373#\367\300w\325\016\301\315B\t\301\244\2276\301\315B\t\301\210\323\364\300A\300\021\301\337i\373\300\203\200+\301\371G\376\300\244\2276\301\244\2276\301\373#\367\300\203\200+\301\234\215\r\301\315B\t\301\315B\t\3018{\007\301\272\003%\301\203\200+\301ai \301\234\215\r\301\244\2276\301\246\211\302\300\244\2276\301\230\354\031\301\244\2276\301@R\025\301\244\2276\301\036;\n\301\244\2276\301\203\200+\301\273\"\005\301K\224\365\300\244\2276\301\244\2276\301\272\003%\301\203\200+\301ai \301\244\242\371\300.t\320\300@R\025\301:w\332\300\317o\023\301\203\200+\301\337\021\325\300\244\2276\301-\310\370\300 \027\003\301ai \301b\327\034\301\315B\t\301\230\354\031\3018{\007\301@R\025\301\373#\367\300\244\2276\301\244\2276\301@R\025\301\230\354\031\301w\325\016\301\203\200+\301b\327\034\301\3359\020\301\244\2276\3011u\027\301\244\2276\3012\267\000\301ai \301\230\354\031\301A\300\021\301\036;\n\301\203\200+\301\203\200+\301\203\200+\301\r\253\362\300\315B\t\301\244\2276\301\203\200+\301\244\2276\301U\276\003\301\244\2276\301\272\003%\301U\276\003\301\356F\001\3011u\027\301\244\2276\301\036;\n\301\213\261\320\300at\343\300\256X\010\301\203\200+\301b\327\034\301\203\200+\3018{\007\301\244\2276\301K\224\365\300w\325\016\301ai \301\203\200+\301\203\200+\301\203\200+\301\244\2276\301\244\2276\301\315B\t\301\234\215\r\301A\300\021\301\"@\353\300\036;\n\301A\300\021\301zv\002\301\272\003%\301xC\013\301ai \301\230\354\031\301S\307\304\300G\341\005\301\203\200+\301\203\200+\301ai \301\234\215\r\3012\267\000\301\244\2276\301K\224\365\300\203\200+\3018{\007\301\250l\004\3012\267\000\301\356F\001\301\244\2276\3012\267\000\301\036;\n\301\244\2276\301 \027\003\301\315B\t\301\317o\023\301\352\231\342\300\373#\367\300\244\2276\301\3359\020\301\272\003%\301\036;\n\301*\270\323\300@R\025\301\272\003%\301\203\200+\301\244\2276\301ai \301\233\316\353\300\037\251\006\301R\326\334\300\244\2276\301\244\2276\301\244\2276\301@R\025\301\244\2276\301\244\2276\301\304]\357\3001u\027\301\244\2276\301@R\025\301\203\200+\301\234\314\333\300\244\2276\301\230\354\031\301\272\003%\301\244\2276\3011u\027\301\244\2276\301\203\200+\301\203\200+\301\371G\376\300\261\276\356\300\360\350\335\300\001\243\351\300\3359\020\301A\300\021\301\244\2276\301\244\2276\301\244\2276\301\266\031\350\300\244\2276\301@R\025\301\244\2276\301\272\003%\301\244\2276\301\020^\014\301w\325\016\301\203\200+\301=q\243\300\337\021\325\300\244\2276\301\244\2276\301\244\2276\301h\307\344\3001u\027\301\213\313\313\300ai \301\203\200+\301\3359\020\301\244\2276\301\244\2276\301\244\2276\301@R\025\301\244\2276\301_`\240\300A\300\021\301\244\2276\301\037\251\006\301\373#\367\300w\325\016\301\3270\335\300C[\327\300\203\200+\301\272\003%\301\037\251\006\301\356F\001\301A\300\021\301\234\215\r\301\247k\314\300\244\2276\301\263Y\366\300@R\025\301\244\2276\301ai \301U\276\003\301\203\200+\301\203\200+\301\244\2276\301\244\2276\301b\327\034\301\272\003%\301\244\2276\301\263Y\366\300\244\2276\301\203\200+\301\244\2276\301\315B\t\301\345\333\001\301w\325\016\301\317o\023\301\272\003%\301\230\354\031\301A\300\021\301\244\2276\301\203\200+\301xC\013\301\272\003%\301\256X\010\301\304]\357\300\326\343\343\300ai \301\317o\023\301\244\2276\301\272\003%\301\263Y\366\300\244\2276\301\244\2276\301\244\2276\301\272\003%\301\244\2276\3011u\027\301\3359\020\301A\300\021\301xC\013\301\3359\020\301\325T\344\300\317o\023\301\203\200+\301A\300\021\301\272\003%\301\272\003%\301ai \301\037\251\006\301\244\2276\301\244\2276\301\020^\014\301ai \301\203\200+\301\230\354\031\301xC\013\301@R\025\301G\341\005\301\230\354\031\301\244\2276\301_\214\335\300xC\013\301\244\2276\301\234\215\r\301\244\2276\301ai \301\3359\020\301\230\354\031\301\244\2276\301\203\200+\301A\300\021\3011u\027\301\244\2276\301\244\2276\301\244\2276\301\272\003%\301\244\2276\301\244\2276\301\203\200+\301\244\2276\301\315B\t\301\3359\020\301\230\354\031\301\244\2276\301\272\003%\301\3359\020\301\272\003%\301ai \301\203\200+\301p+\340\300@R\025\301A\300\021\301\371G\376\300\272\003%\301\244\2276\301\244\2276\301\r\253\362\300b\327\034\301\244\2276\301xC\013\301\001\243\351\300\244\2276\301\244\2276\301\244\2276\301b\363\367\300\312|\334\300ai \301\230\354\031\301xC\013\301\037\251\006\301\230\354\031\301\234\215\r\3011u\027\301@R\025\3018{\007\301\244\2276\301\256X\010\301\037\251\006\301\203\200+\301\203\200+\301\272\003%\3011u\027\301\230\354\031\301\244\2276\301\250l\004\301\203\200+\301\244\2276\301G\341\005\3018{\007\301\244\2276\301\244\2276\301q\242\346\300\244\2276\301\276t\323\300\203\200+\301\272\003%\301\203\200+\301\373#\367\300\317o\023\3011u\027\301\241\035\347\300\203\200+\301\244\2276\301\244\2276\301w\243\303\300\345\333\001\301\203\200+\301\244\2276\301\203\200+\301\272\003%\301\244\2276\301VW\374\300ai \301\244\2276\301\203\200+\301\203\200+\301\244\2276\301\244\2276\301 \027\003\301\244\2276\301\244\2276\301\272\003%\301\272\003%\301\244\2276\301\030\203\372\300%\231\316\3008{\007\301\203\200+\301\272\003%\301-\310\370\300\203\200+\301h\307\344\300ai \301\272\003%\301\3359\020\301\3575\314\300\272\003%\301ai \301\230\354\031\301\234\215\r\301\244\2276\301\244\2276\301$\310\337\300\272\003%\301@R\025\301\244\2276\301b\327\034\301\203\200+\301@R\025\301\203\200+\301\203\200+\301\272\003%\301\244\2276\301\244\2276\3011u\027\301\244\2276\301\244\2276\301\203\200+\301\272\003%\301w\325\016\301b\327\034\301\244\2276\301ai \301ai \301-\310\370\300\244\2276\301\203\200+\301\244\2276\301\272\003%\301\272\003%\301\337i\373\300 \027\003\301\244\2276\301i*\352\300\234\215\r\3011u\027\301@R\025\301\272\003%\301\317o\023\301\244\2276\301\036;\n\301b\327\034\301\244\2276\301\032_\363\300@R\025\301\203\200+\301\203\200+\301\230\354\031\301b\327\034\301\230\354\031\301\210\323\364\300\272\003%\301\203\200+\301\244\2276\301\244\2276\301\203\200+\301\203\200+\301\244\2276\301ai \301\244\2276\301\203\200+\301\020^\014\301A\300\021\301\203\200+\301zv\002\301\017L\377\3001u\027\301A\300\021\301b\327\034\301\230\354\031\301\203\200+\301\210\323\364\300i*\352\300\312\340\244\300\364\217\340\300$ \333\300w\325\016\301\3359\020\301\203\200+\301ai \301\244\2276\301\203\200+\301\230\354\031\301xC\013\301:w\332\300\317o\023\301\315B\t\301\272\003%\301ai \301\337i\373\300\203\200+\301\244\2276\301w\325\016\301\272\003%\301\272\003%\301\272\003%\301\203\200+\301G\341\005\301A\300\021\301\344K\375\300VW\374\300\230\354\031\301\203\200+\301\203\200+\301\244\2276\301\272\003%\301\244\2276\301\3359\020\301\203\200+\301\314\035\351\300\226\336\277\300\272\003%\301\037\251\006\301@R\025\301w\325\016\301\203\200+\301\244\2276\301\244\2276\301\244\2276\301\244\2276\301\272\003%\301A\300\021\301\203\200+\301\020^\014\301\244\2276\301\203\200+\301\3359\020\301\244\2276\301\317o\023\301G\341\005\301@R\025\301\315B\t\301\317o\023\301A\300\021\301\272\003%\301\244\2276\301\244\2276\301\344K\375\300\244\2276\301\244\2276\301\203\200+\301\244\2276\301\272\003%\301\244\2276\301\244\2276\301\017L\377\300\272\003%\301\325T\344\3008{\007\301\020^\014\301ai \301\272\003%\3011u\027\301\315B\t\301zv\002\301\203\200+\301\244\2276\301\244\2276\301G\341\005\301b\327\034\301\272\003%\301\244\2276\301\272\003%\301\256X\010\301\244\2276\301\244\2276\301\272\003%\301\244\2276\301\244\2276\301\244\2276\301\244\2276\301\315B\t\301\256X\010\301\3359\020\301ai \3013\027\364\300\036;\n\301\244\2276\301@R\025\301q\242\346\300\203\200+\301b\327\034\301\272\003%\301\317o\023\301xC\013\301\272\003%\301\203\200+\301\371G\376\300ai \301A\300\021\301\203\200+\301\244\2276\301\244\2276\301\203\200+\3011u\027\301\203\200+\301k\006\343\300xC\013\301\244\2276\301\203\200+\301ai \301V,\000\301\256X\010\301G\341\005\3015\363\354\300\272\003%\301$\310\337\300\244\2276\301ai \301\203\200+\301\244\2276\301\244\2276\301\244\2276\301\230\354\031\301@R\025\301\314\035\351\300\030\203\372\300\234\215\r\301b\327\034\301\244\2276\3011u\027\301ai \301\037\251\006\301\203\200+\301\036;\n\301\244\2276\301\233\316\353\300\230\354\031\301\244\2276\301:w\332\300\272\003%\301\244\2276\301\244\2276\3011u\027\301\244\2276\301\272\003%\301\244\2276\301\244\2276\301ai \301\315B\t\301\256X\010\301\244\2276\301\337\372\361\300\272\003%\301\315B\t\3011u\027\301\203\200+\301\244\2276\301@R\025\301\203\200+\301\272\003%\301\017L\377\300@R\025\301\230\354\031\301\244\2276\3011u\027\301\203\200+\301G\341\005\301\344K\375\300\244\2276\301ai \301\244\2276\301\244\2276\301\317o\023\301G\341\005\301\244\242\371\300\272\003%\301\315B\t\301\256X\010\301\234\215\r\301\037\251\006\301\030\264\352\300ai \301\244\2276\301\315B\t\301\3359\020\301ai \3018{\007\301\244\2276\301ai \301\244\2276\301\203\200+\301\020^\014\301\203\200+\301\230\354\031\301\230\354\031\301x\021\242\300\3361\323\300\315B\t\301\036;\n\301\230\354\031\301b\327\034\301ai \301\244\2276\301\272\003%\301\244\2276\301\244\2276\3011u\027\301ai \301b\327\034\301\203\200+\301\244\2276\301\3359\020\301G\341\005\301\272\003%\301\272\003%\3013\027\364\300\244\2276\301ai \301\244\2276\301\036;\n\301\230\354\031\301@R\025\301\203\200+\301\244\2276\301\244\2276\301\272\003%\301\244\2276\301A\300\021\301A\300\021\301\203\200+\301\234\215\r\301\250l\004\301b\327\034\301@R\025\301ai \301ai \3011u\027\3018{\007\301\250l\004\301\325\205\324\300\273\"\005\301\203\200+\301\203\200+\301\203\200+\301A\300\021\301ai \301\272\003%\301\244\2276\301A\300\021\301\244\2276\3011u\027\301b\327\034\301A\300\021\301\244\2276\301\203\200+\301\203\200+\301\244\2276\301\244\2276\301\244\2276\301\244\2276\301\244\2276\301\244\2276\301\203\200+\301\272\003%\301\244\2276\301\3359\020\3011u\027\301\203\200+\301\203\200+\301@R\025\301\244\2276\301\203\200+\301at\343\300xC\013\301\244\2276\301\203\200+\301\234\215\r\301i*\352\300\244\2276\301w\325\016\301\203\200+\301\203\200+\301G\341\005\301\230\354\031\301\3359\020\301\203\200+\301\244\2276\301\273\"\005\301\244\2276\301\244\2276\301\203\200+\301ai \301G\341\005\301\230\354\031\301\244\2276\301\256X\010\301\345\333\001\301b\363\367\300\244\2276\301\203\200+\301A\300\021\301@R\025\301\023)\346\300b\327\034\301\244\2276\301ai \301\3057\311\300b\327\034\3018{\007\3018{\007\301b\327\034\301\371G\376\300\203\200+\301\n\352\261\300p+\340\300\244\2276\301\244\2276\301\203\200+\301\273\"\005\301\244\2276\301\230\354\031\301\272\003%\301b\327\034\301b\327\034\301\315B\t\301U\276\003\301\203\200+\301\317o\023\301\244\2276\301\244\2276\301\020^\014\301b\327\034\301\244\2276\301w\325\016\301\272\003%\3011u\027\301\273\"\005\301\261\276\356\300\244\2276\301A\300\021\301\244\2276\301\244\2276\301\344K\375\300\244\2276\301A\300\021\3018{\007\301ai \301b\327\034\301\244\2276\301ai \301\272\003%\301\020^\014\301\020^\014\301\230\354\031\301\203\200+\301\244\2276\301\244\2276\301\244\2276\301\203\200+\301\272\003%\301\244\2276\301\244\2276\301\234\215\r\3011u\027\301}\245\360\300\244\2276\301@R\025\3013\027\364\3001u\027\301\017L\377\300\244\2276\301\036;\n\301\203\200+\301\203\200+\301\244\2276\301\244\2276\301\032_\363\300\230\354\031\301b\327\034\301\250l\004\301E\245\336\300\315B\t\301\244\2276\301b\327\034\301@R\025\301\244\2276\301\272\003%\301\230\354\031\301@R\025\301b\327\034\301\317o\023\301ai \301w\325\016\301\244\2276\301\203\200+\301ai \3011u\027\301\244\2276\301\020^\014\301\203\200+\301\244\2276\301\244\2276\301\272\003%\301\023)\346\300\373#\367\300\203\200+\301\203\200+\3011u\027\301\244\2276\301b\327\034\301\272\003%\301A\300\021\301\272\003%\301ai \301\203\200+\301\244\2276\301\203\200+\301\244\2276\301\244\2276\301\244\2276\301U\276\003\301\244\2276\301\244\2276\301\272\003%\301\244\2276\301\244\2276\301b\327\034\301\244\2276\301zv\002\301ai \301\244\2276\301\317o\023\301\203\200+\301\244\2276\301\203\200+\301\272\003%\301\244\2276\301\244\2276\301\244\2276\301b\327\034\3011u\027\301b\327\034\301\203\200+\3011u\027\301\203\200+\301\272\003%\301\244\2276\301\203\200+\301\272\003%\301\244\2276\301ai \301\203\200+\301\244\2276\301U\276\003\301\244\2276\301U\276\003\301\203\200+\3011u\027\301\203\200+\301b\327\034\301\272\003%\301\203\200+\301\036;\n\301A\300\021\3011u\027\301\244\2276\301\344K\375\300\244\2276\301zv\002\301\244\2276\301\312|\334\300\356F\001\301\203\200+\301\244\2276\301\373#\367\300@R\025\301\272\003%\3011u\027\301\203\200+\301\203\200+\301\244\2276\301\272\003%\301w\325\016\301\256X\010\301\246\"\356\300\244\2276\3012\267\000\301\3359\020\301\230\354\031\3015\363\354\3001u\027\301\244\2276\301ai \301\234\314\333\300xC\013\301-\310\370\300xC\013\301w\325\016\301G\341\005\301\356F\001\301zv\002\301\244\2276\301\203\200+\301ai \301\203\200+\301\317o\023\3011u\027\301ai \3011u\027\301\203\200+\301b\327\034\301ai \301b\327\034\301\360\350\335\300\230\354\031\301@R\025\301\356F\001\301\203\200+\301\273\"\005\301\272\003%\301\3359\020\301\304]\357\300b\327\034\301xC\013\301\203\200+\301\244\2276\301\272\003%\301\244\2276\301ai \301\244\2276\301\244\2276\301\230\354\031\301\203\200+\301\203\200+\301\036;\n\301\020^\014\301\020^\014\301b\327\034\301\344K\375\300\244\2276\301\250l\004\301 \027\003\301\030\203\372\3001u\027\301ai \301\317o\023\301\244\2276\301\244\2276\301A\300\021\3011u\027\301\272\003%\301\244\2276\301\244\2276\301\203\200+\301\272\003%\301\203\200+\301A\300\021\301\230\354\031\301\203\200+\301\244\2276\301\244\2276\301w\325\016\301\244\2276\301\203\200+\301\244\2276\301\203\200+\301gN\361\3008{\007\301\244\2276\301\244\2276\301\246\"\356\300\203\200+\301ai \301\244\2276\301\234\215\r\301\244\2276\301\305^\274\300b\327\034\301b\327\034\301\244\2276\3012\267\000\301\272\003%\3018{\007\301\244\2276\301\244\2276\301ai \301\244\2276\301\244\2276\301\244\2276\301\244\2276\301\037\251\006\301@R\025\301\244\242\371\300\272\003%\301k\006\343\300\230\354\031\301\272\003%\301\244\2276\301ai \301\317o\023\301\203\200+\301\230\354\031\301zv\002\301\203\200+\301\244\2276\301\203\200+\301\244\2276\301\244\2276\301\244\2276\301\203\200+\301\203\200+\301\244\2276\301\230\354\031\3011u\027\301\244\2276\301\244\2276\301\244\2276\301\3359\020\301@R\025\301\244\2276\301\315B\t\301\272\003%\301\244\2276\301\203\200+\301\036;\n\301\244\2276\301\244\2276\301\244\2276\301\203\200+\301VW\374\300\025\005\337\300\205\350\325\300b\327\034\3011u\027\301\272\003%\301ai \301\001\243\351\300\220F\336\300\317o\023\301\203\200+\301\244\2276\301\203\200+\301\272\003%\301\037\251\006\301@R\025\301\244\2276\3018{\007\301\244\2276\301\244\2276\301\272\003%\301b\363\367\300\315B\t\301\037\251\006\301w\325\016\301\203\200+\301\3359\020\301\244\2276\301\272\003%\301\230\354\031\301\203\200+\301\272\003%\3011u\027\301\203\200+\301\203\200+\301\272\003%\301\020^\014\301\203\200+\301@R\025\301\244\2276\301ai \301\203\200+\301\203\200+\301\230\354\031\301@R\025\301\244\2276\301\272\003%\301\244\2276\301\244\2276\301\203\200+\301\244\2276\301@R\025\301\244\2276\301\244\2276\301b\363\367\300\244\2276\301n\220\330\300\036;\n\301\203\200+\301\203\200+\301\203\200+\301\304]\357\300\244\2276\301A\300\021\301\244\2276\301xC\013\301\203\200+\301\244\2276\301\272\003%\301\273\"\005\301b\327\034\301\244\2276\301\272\003%\301\244\2276\301\244\2276\301w\325\016\3018{\007\301\272\003%\301\244\2276\301w\325\016\301\244\2276\301\203\200+\301\230\354\031\301\230\354\031\301\203\200+\301\203\200+\301\203\200+\301\203\200+\301\244\2276\301\244\2276\301\304\\\341\300U\276\003\301\263+\322\300\263Y\366\300\373#\367\300\203\200+\301\304]\357\300\230\354\031\3011u\027\301\203\200+\3011u\027\301\356F\001\301\203\200+\301-\310\370\300\036;\n\3011u\027\301\230\354\031\301\203\200+\301\244\2276\301\272\003%\301\317o\023\3011u\027\301b\327\034\301\244\2276\301\244\2276\3011u\027\301\256X\010\301\272\003%\301\244\2276\301\272\003%\301\250l\004\301A\300\021\301ai \301\272\003%\301\272\003%\301\244\2276\301\244\2276\301b\327\034\301ai \301\244\2276\301\203\200+\301\244\2276\301\203\200+\301\244\2276\301\244\2276\301\244\2276\301\272\003%\301b\327\034\301ai \301\203\200+\301\036;\n\301\244\2276\301\244\2276\301\272\003%\301\203\200+\301\244\2276\301\244\2276\301\244\2276\301ai \301\272\003%\301\272\003%\301\244\2276\301\203\200+\301\272\003%\301\203\200+\301\203\200+\301\244\2276\301A\300\021\301\272\003%\301\203\200+\301\036;\n\301\244\2276\301\244\2276\301\203\200+\301\244\2276\301\315B\t\301ai \301\244\2276\301\203\200+\301\244\2276\301b\327\034\301 \027\003\301\344K\375\300ai \301\3359\020\301ai \301\244\2276\301\020^\014\301\234\215\r\301ai \301\272\003%\301\244\2276\301\244\2276\301\315B\t\301\317o\023\301\273\"\005\301b\327\034\301\244\2276\301(\330\314\300@R\025\3011u\027\301\244\2276\301\244\2276\301\244\2276\3011u\027\301b\327\034\301\244\2276\301\302\017\327\300A\300\021\301\373#\367\300\244\2276\301\272\003%\301\317o\023\301\272\003%\301ai \301\244\2276\301\244\2276\301\244\2276\301\272\003%\301\244\2276\301\256X\010\301\344K\375\300\3359\020\301w\325\016\301\203\200+\301\272\003%\301\272\003%\301b\327\034\301\203\200+\301\203\200+\301V,\000\301\272\003%\301\230\354\031\301*\361\262\300\244\2276\301\203\200+\301 \027\003\301@R\025\301\203\200+\301A\300\021\301\244\2276\301\230\354\031\301\272\003%\301\203\200+\301\244\2276\301\203\200+\301ai \301\230\354\031\3011u\027\301 \027\003\301\244\2276\301\017L\377\300\272\003%\301b\327\034\301\244\2276\301A\300\021\301@R\025\301\244\2276\301\203\200+\3011u\027\301\272\003%\301\244\2276\301\244\2276\301ai \301\272\003%\301\3359\020\301\244\2276\301\244\2276\301\244\2276\301\203\200+\301\272\003%\301\203\200+\301\244\2276\301\244\2276\301b\327\034\301\244\2276\301\244\2276\301\203\200+\301\244\2276\301-\310\370\3001u\027\3011u\027\301\244\2276\301\020^\014\301q\242\346\300\244\2276\301\244\2276\301\203\200+\301\203\200+\301@R\025\301\244\2276\301\036;\n\301\3359\020\301\203\200+\301\244\2276\301\203\200+\301\272\003%\301\244\2276\301b\327\034\301\203\200+\301\203\200+\301@R\025\301ai \301\261\276\356\300A\300\021\301\203\200+\301\244\2276\301w\325\016\301\371G\376\300\244\2276\301\3270\335\300\204b\313\300\203\200+\301ai \301\207N\306\300\273\"\005\301\3359\020\301\244\2276\301\244\2276\301\244\2276\301ai \301\315B\t\301\036;\n\301\023)\346\300\244\2276\301\244\2276\301@R\025\301\244\2276\301\230\354\031\301\315B\t\301ai \301\244\2276\301\345\333\001\301\203\200+\301G\341\005\301\244\2276\301\020^\014\301b\327\034\301\203\200+\301\272\003%\301\272\003%\301\244\2276\301h\307\344\300\244\2276\301\244\2276\301\244\2276\301\203\200+\301\244\2276\301\036;\n\301\244\2276\301\020^\014\3011u\027\301\230\354\031\301\203\200+\301ai \301ai \301\272\003%\3011u\027\301A\300\021\301\244\2276\301\272\003%\301\244\2276\301\315B\t\301\317o\023\301\203\200+\3011u\027\301\244\2276\301V,\000\301\203\200+\301ai \301ai \301\272\003%\301A\300\021\301\203\200+\301@R\025\301\203\200+\301\317o\023\301ai \301\244\2276\301\317o\023\301\244\2276\301\244\2276\301\244\2276\301\244\2276\301\203\200+\301\244\2276\301A\300\021\301\272\003%\301\230\354\031\301A\300\021\301b\327\034\301\234\215\r\301\244\2276\301\244\2276\301\232_\354\300ai \301\230\354\031\301\345\333\001\301\203\200+\301\203\200+\301\244\2276\301\244\2276\3011u\027\301b\327\034\301\244\2276\301\244\2276\301\203\200+\301\244\2276\301ai \301\244\2276\301\244\2276\301\244\2276\301-\310\370\300\337\372\361\300\244\2276\301\272\003%\3015\363\354\300\244\2276\301\244\2276\301\203\200+\301\230\354\031\301b\327\034\301ai \301\244\2276\301\230\354\031\301\272\003%\3011u\027\301\230\354\031\301ai \301\244\2276\301\244\2276\301@\335\273\300U\276\003\301\272\003%\301\230\354\031\301\244\2276\301\203\200+\301\244\2276\301\244\2276\301\315B\t\301\244\2276\301\203\200+\301\315B\t\301\234\215\r\301\244\2276\301b\327\034\301A\300\021\301w\325\016\301\203\200+\301\r\253\362\300\244\2276\3011u\027\301\244\2276\301\272\003%\301\244\2276\301\203\200+\301\244\2276\301\244\2276\3011u\027\301\272\003%\301\244\2276\301\203\200+\301\261\276\356\300\203\200+\301\272\003%\301b\327\034\301\244\2276\301\244\2276\301\244\2276\301\244\2276\301\255h\311\300\203\200+\301xC\013\301\020^\014\301\3359\020\301-\310\370\300\232_\354\300b\327\034\301\203\200+\301\244\2276\301\r\253\362\300\344K\375\300\304]\357\300\315B\t\301\203\200+\301\244\2276\301\244\2276\301\344K\375\300\244\2276\301xC\013\301\244\2276\301\234\215\r\301\244\2276\301\244\2276\301\037\251\006\301\020^\014\301\317o\023\301\317o\023\301\315B\t\301\230\354\031\301w\325\016\301\036;\n\301\234\215\r\301ai \301xC\013\301b\327\034\301\244\2276\301\244\2276\301b\327\034\301\244\2276\301\230\354\031\301\203\200+\301ai \301\244\2276\301\272\003%\301\244\2276\301\324.\342\300ai \301\244\2276\301k\006\343\300\317o\023\301\317o\023\3012\325\306\300\272\003%\301\203\200+\301\244\2276\301\272\003%\301\244\2276\301\244\2276\301\272\003%\301\244\2276\301\3359\020\301b\327\034\301\230\354\031\301w\325\016\301\230\354\031\301\203\200+\301\244\2276\301\244\242\371\300\317o\023\301ai \301\203\200+\301\272\003%\3011u\027\301\244\2276\301\244\2276\301xC\013\301\203\200+\301\244\2276\301\244\2276\301\230\354\031\301\037\251\006\301\"@\353\300\272\003%\301\203\200+\301w\325\016\301\020^\014\301ai \301U\276\003\301\020^\014\301\234\215\r\301\244\2276\301\203\200+\301\244\2276\301\244\2276\301\203\200+\301\3359\020\301@R\025\3011u\027\301\203\200+\301\272\003%\301@R\025\301@R\025\301\244\2276\301\244\2276\301\037\251\006\301ai \301\244\2276\301\272\003%\301\244\2276\301\272\003%\301\203\200+\301\203\200+\301\315B\t\301\203\200+\301\244\2276\301\317o\023\301\234\215\r\301\345\333\001\3011u\027\301\244\2276\301\244\2276\301\203\200+\301ai \301\244\2276\301\203\200+\301U\276\003\301\272\003%\301\272\003%\301\nB\330\300\230\354\031\301\244\2276\301\244\2276\301\244\2276\301\272\003%\301\244\2276\301\036;\n\301\317o\023\301b\327\034\301\317o\023\301ai \301\037\251\006\3011u\027\301ai \301ai \301\273\"\005\301ai \301\030\203\372\300b\327\034\301\244\2276\301\315B\t\301\244\2276\301\3359\020\301w\325\016\301\203\200+\301\203\200+\301\3359\020\301\203\200+\301\272\003%\301\203\200+\301\244\2276\301\203\200+\301\r\253\362\300w\325\016\301@R\025\301\244\2276\301\244\2276\301\317o\023\301ai \301\203\200+\301w\325\016\301\230\354\031\301\036;\n\301\345\333\001\3011u\027\301\036;\n\301ai \3011u\027\301\273\"\005\301\017L\377\300\244\2276\301\244\2276\301\036;\n\301\244\2276\301\244\2276\301\272\003%\301A\300\021\301\244\2276\301\315B\t\301\244\2276\301\244\2276\301 \027\003\301\230\354\031\301\244\2276\301\244\2276\301\271\232\350\300\244\242\371\300@R\025\301\234\215\r\301\244\2276\301\272\003%\301\244\2276\301\230\354\031\301\244\2276\301\244\2276\301\272\003%\301ai \301\037\251\006\301b\327\034\301b\327\034\301\244\2276\301\244\2276\301\244\2276\301\244\2276\301\244\2276\301\244\2276\301\244\2276\301\244\2276\301\244\2276\301\244\2276\301\244\2276\301\315B\t\301\244\2276\301\244\2276\301A\300\021\301\272\003%\301\244\2276\301\244\2276\301\3359\020\301\304\\\341\300ai \301\244\2276\301xC\013\301\230\354\031\301\244\2276\301\244\2276\301ai \301\272\003%\301G\341\005\301\250l\004\301b\327\034\301b\327\034\301\244\242\371\300\230\354\031\301\036;\n\301\203\200+\301\317o\023\301\244\2276\301k\006\343\300\272\003%\301\203\200+\301\244\2276\301b\363\367\300b\327\034\301\244\2276\301\272\003%\301\272\003%\301\244\2276\301ai \3012\267\000\301\244\2276\301\020^\014\301-\310\370\300U\276\003\301\272\003%\301\244\2276\301\203\200+\301\244\2276\301\230\354\031\301\244\2276\301\203\200+\301A\300\021\301\020^\014\301\244\2276\3018{\007\3011u\027\301\230\354\031\301\244\2276\301\203\200+\301\272\003%\301\244\2276\301\244\2276\301\203\200+\301\244\2276\301\244\2276\301\244\2276\301@R\025\301\272\003%\301\272\003%\301\203\200+\301\244\2276\301\317o\023\301w\325\016\301\203\200+\301\234\215\r\301\203\200+\301\244\2276\301\244\2276\301\230\354\031\301\203\200+\301\244\2276\301\244\2276\301\244\2276\301\203\200+\301\036;\n\301\203\200+\301\272\003%\301\244\2276\301A\300\021\301\244\2276\301\272\003%\3011u\027\301@R\025\301\203\200+\301\244\2276\301\203\200+\301 \027\003\301\203\200+\301\244\2276\301b\327\034\301\272\003%\301ai \301\244\2276\301\244\2276\301\203\200+\301w\325\016\301\244\2276\301\230\354\031\301\244\2276\301b\327\034\301\203\200+\301\244\2276\301\317o\023\301\203\200+\301\230\354\031\301\203\200+\301\244\2276\3011u\027\301\244\2276\301\230\354\031\301\3359\020\301\203\200+\301\244\2276\301\203\200+\301\337\372\361\300\244\2276\301\272\003%\3011u\027\301\244\2276\301\244\2276\301ai \301\244\2276\301\244\2276\301\244\2276\301\272\003%\301\272\003%\301\244\2276\301\244\2276\301\244\2276\301\244\2276\301\244\2276\301\203\200+\3011u\027\301\244\2276\301\304]\357\300\203\200+\301ai \301\244\2276\301\203\200+\301\020^\014\301\244\2276\301\203\200+\301\203\200+\301\272\003%\301\317o\023\3011u\027\3011u\027\301\272\003%\3011u\027\301@R\025\301\244\2276\301\020^\014\301\244\2276\301\244\2276\301ai \301\244\2276\301\244\2276\301\230\354\031\301@R\025\301\203\200+\301\272\003%\301\244\2276\301\244\2276\301\244\2276\301b\327\034\301\244\2276\301ai \301\203\200+\301\272\003%\301\244\2276\301U\276\003\301\272\003%\301\244\2276\301\203\200+\301b\327\034\301\203\200+\301\244\2276\301\244\2276\301\337\021\325\300A\300\021\301\244\2276\301ai \301\272\003%\301\272\003%\301\272\003%\301\203\200+\301\244\2276\301\244\2276\301\244\2276\301\244\2276\301\244\2276\301\230\354\031\301\244\2276\301\244\2276\301\244\2276\301\244\2276\301\244\2276\301\244\2276\301\244\2276\301\263Y\366\300xC\013\301ai \301\203\200+\301\230\354\031\301\020^\014\301\272\003%\301\244\2276\301@R\025\301ai \301\272\003%\301ai \301\244\2276\301\341\355\315\300\272\003%\301\244\2276\301\244\2276\301\203\200+\301\344K\375\300\244\2276\301\244\2276\301\272\003%\301\244\2276\301\037\251\006\301\203\200+\301\244\2276\301\036;\n\301at\343\300\203\200+\301@R\025\301b\327\034\301\244\2276\301\203\200+\301A\300\021\301\244\2276\301\3359\020\301ai \301\244\2276\301\234\215\r\301\020^\014\301\230\354\031\301\210\323\364\300\345\333\001\301\272\003%\301w\325\016\301\244\2276\301@R\025\301\203\200+\301@R\025\301\203\200+\301\244\2276\301\244\2276\301\317o\023\301\244\2276\301\244\2276\301ai \301\272\003%\301b\327\034\301\244\2276\301\203\200+\301\203\200+\301\337\372\361\300\3359\020\301\203\200+\301\203\200+\301\244\2276\301\020^\014\301\203\200+\301\244\2276\301\244\2276\301\244\2276\301\244\2276\301\244\2276\301\203\200+\301\272\003%\301\272\003%\301\203\200+\301 \027\003\301\244\2276\301\244\2276\301\317o\023\301\244\2276\301ai \3011u\027\301b\327\034\301\317o\023\3012\267\000\301\203\200+\301b\327\034\301A\300\021\301xC\013\301\244\2276\301\244\2276\301\345\333\001\301\036;\n\301G\341\005\301\244\2276\301\230\354\031\301\320\372\317\300\315B\t\301\037\251\006\3011u\027\301 \027\003\301\203\200+\301\326\343\343\300\244\2276\301@R\025\301\020^\014\3011u\027\301ai \3011u\027\301\244\2276\301\244\2276\301b\327\034\301G\341\005\301\244\2276\301\244\2276\301\3359\020\301ai \301\244\2276\301@R\025\301\3359\020\301\244\2276\301ai \301\037\251\006\301\244\2276\301\244\2276\301\272\003%\301\244\2276\301\317o\023\301\244\2276\301\244\2276\301\203\200+\301w\325\016\301\272\003%\301\203\200+\301\234\215\r\301\272\003%\301@R\025\301\244\2276\301\244\2276\301ai \301\203\200+\301\244\2276\301\001\243\351\300\244\2276\301\244\2276\301\244\2276\301\203\200+\301\203\200+\301\272\003%\301\244\2276\3011u\027\301\037\251\006\301ai \301xC\013\301\337i\373\300\272\003%\301\345\333\001\301\203\200+\301\244\2276\301\272\003%\301\244\2276\301\244\2276\301G\341\005\301\244\2276\301\203\200+\301G\341\005\301\244\2276\301\244\2276\301@R\025\301\203\200+\301w\325\016\301\244\2276\301\244\2276\301\203\200+\301\230\354\031\301\201/\331\300\203\200+\301\272\003%\301\244\2276\301\203\200+\301\272\003%\301b\327\034\301\244\2276\301\244\2276\301\244\2276\301\244\2276\301\244\2276\3011u\027\301\244\2276\301b\327\034\301\244\2276\301\203\200+\301\244\2276\301\230\354\031\301\244\2276\301\244\2276\301V,\000\301\272\003%\301ai \301b\327\034\3011u\027\301\037\251\006\3018{\007\301\244\2276\301\272\003%\301\244\2276\301G\341\005\301\373#\367\300\244\2276\3018{\007\301b\327\034\301\244\2276\301\315B\t\301\272\003%\301\244\2276\301\230\354\031\301\203\200+\301\373#\367\300\244\2276\301\244\2276\301\230\354\031\301@R\025\301\244\2276\301\244\2276\301\3359\020\301\244\2276\301ai \301\244\2276\301\244\2276\301\230\354\031\301\244\2276\301ai \301ai \301\244\2276\301\244\2276\301\244\2276\301\244\2276\301\244\2276\301w\325\016\301\203\200+\301b\327\034\301\272\003%\301\244\2276\301ai \301\244\2276\301@R\025\301\244\2276\301\244\2276\301\244\2276\301\272\003%\301\272\003%\301\244\2276\301\272\003%\301\244\2276\301\244\2276\301xC\013\301\244\2276\301ai \301\244\2276\301ai \301U\276\003\301@R\025\301\244\2276\301\244\2276\301\244\2276\3011u\027\301\203\200+\301\244\2276\301ai \301\203\200+\301\263\232\347\300\3359\020\301ai \301w\325\016\301ai \301\272\003%\301\244\2276\301\244\2276\301\244\2276\301\3359\020\301\203\200+\301w\325\016\301\272\003%\301\244\2276\301b\327\034\301\244\2276\301\244\2276\301\203\200+\301\272\003%\301\244\2276\301\244\2276\301\203\200+\301\244\2276\301\203\200+\301\244\2276\301\244\2276\301\244\2276\301\020^\014\301\272\003%\301\244\2276\301\203\200+\301\244\2276\301\234\215\r\301\244\2276\301\244\2276\301\272\003%\301\244\2276\301\203\200+\301\234\215\r\301\244\2276\301\244\2276\301\203\200+\301ai \301\244\2276\301\020^\014\301\203\200+\301\244\2276\3011u\027\301\203\200+\301\203\200+\301\337i\373\300\244\2276\301\317o\023\3011u\027\301\272\003%\301\244\2276\301\203\200+\301\315B\t\301\230\354\031\301\230\354\031\301\244\2276\301\244\2276\301\244\2276\301b\327\034\301\244\2276\301\244\2276\301\244\2276\301\244\2276\301\203\200+\301\317o\023\301ai \301\272\003%\301b\327\034\301\023)\346\300\244\2276\301\272\003%\301\203\200+\301\203\200+\301ai \301\244\2276\3011u\027\301\203\200+\301\244\2276\301\244\2276\301\244\2276\301\244\2276\301\244\2276\301\230\354\031\301\244\2276\301\244\2276\301\244\2276\301\317o\023\301\244\2276\301\244\2276\301b\327\034\301\272\003%\301ai \301ai \301\244\2276\301\203\200+\301\244\2276\301\244\2276\301\244\2276\301\272\003%\301ai \301A\300\021\301b\327\034\301\244\2276\301gN\361\300\230\354\031\301\244\2276\301\203\200+\301\244\2276\301\203\200+\301\3359\020\301\203\200+\301\3359\020\301\244\2276\301\244\2276\301\244\2276\301\203\200+\301\244\2276\301\203\200+\301\203\200+\301\244\2276\301@R\025\301\244\2276\301\036;\n\301\263Y\366\300\244\2276\301\244\2276\301\244\2276\301\244\2276\3018{\007\301@R\025\301\244\2276\301\203\200+\301\244\2276\301\203\200+\301\244\2276\301\244\2276\301\246\"\356\300\345\333\001\301b\327\034\3011u\027\301\203\200+\301\244\2276\301ai \301\244\2276\301ai \301\244\2276\301b\327\034\301\244\2276\301\244\2276\301\244\2276\301\244\2276\301b\327\034\301\244\2276\301\203\200+\301\317o\023\301\244\2276\301\272\003%\301\244\2276\301\203\200+\3011u\027\301ai \301\3359\020\301b\327\034\301\230\354\031\301\203\200+\301\203\200+\301\203\200+\301\244\2276\301\317o\023\301w\325\016\301b\327\034\301w\325\016\301w\325\016\301\230\354\031\301\210\323\364\300\315B\t\301A\300\021\301\244\2276\301\036;\n\301\356F\001\301\244\2276\301\244\2276\301\244\2276\301\244\2276\301\203\200+\301\3359\020\301\244\2276\301\375\377\357\300ai \301\244\2276\3018{\007\301U\276\003\301\244\2276\3011u\027\301\244\2276\301\272\003%\301\244\2276\301\230\354\031\301\244\2276\301\244\2276\301b\327\034\301\244\2276\301\244\2276\301\203\200+\301\230\354\031\301\244\2276\301\373#\367\300\317o\023\301ai \301\017L\377\300w\325\016\301\272\003%\301\272\003%\301\244\2276\3011u\027\301VW\374\300\244\2276\301\017L\377\300\203\200+\301\r\253\362\300\272\003%\301\036;\n\301\315B\t\301\234\215\r\301\203\200+\301\244\2276\301\203\200+\301\203\200+\301\037\251\006\301\272\003%\301\203\200+\301\317o\023\301\272\003%\3012\267\000\301\256X\010\301\272\003%\301\244\2276\301\244\2276\301A\300\021\301\3359\020\301\244\2276\301\244\2276\301\244\2276\301w\325\016\301\244\2276\301A\300\021\301\244\2276\301\020^\014\301\020^\014\301\276t\323\300A\300\021\301\244\2276\301\244\2276\301{\261\345\300A\300\021\301\244\2276\301\230\354\031\301\244\2276\301\244\2276\301\244\2276\301b\327\034\301ai \301\244\2276\301\244\2276\301w\325\016\301ai \301\203\200+\301\317o\023\301\272\003%\301@R\025\301\317o\023\30180\307\300\244\2276\301\272\003%\301\244\2276\301ai \301\244\2276\301\3359\020\301b\327\034\301\272\003%\301\3359\020\301\244\2276\301\244\2276\301A\300\021\301\244\2276\301\244\2276\301ai \301\244\2276\301A\300\021\301\317o\023\301\244\2276\301\203\200+\301\020^\014\301\272\003%\301\203\200+\301\244\2276\301\244\2276\301xC\013\301\203\200+\301\244\2276\3011u\027\301\244\2276\301\244\2276\301\234\215\r\301@R\025\301\272\003%\301\244\2276\301\203\200+\301-\310\370\300\244\2276\301\203\200+\301b\327\034\301\272\003%\301\244\2276\301\272\003%\301\203\200+\301\272\003%\301\272\003%\301\244\2276\301\244\2276\301\244\2276\301\203\200+\301\230\354\031\301\256X\010\301\203\200+\301\272\003%\301b\327\034\301ai \301\244\2276\301\244\2276\301\244\2276\301b\327\034\301\244\2276\301\203\200+\301w\325\016\301w\325\016\301@R\025\3011u\027\301\317o\023\301\244\2276\301\203\200+\301\272\003%\301\020^\014\301\272\003%\301\272\003%\301\203\200+\301\244\2276\301A\300\021\301\244\2276\301\230\354\031\301\203\200+\301b\327\034\301ai \301\244\2276\301\244\2276\301\244\2276\301\317o\023\301\244\2276\301\244\2276\301\203\200+\301\203\200+\301\244\2276\301\244\2276\301\244\2276\301\315B\t\301\244\2276\301\037\251\006\301ai \301ai \301\203\200+\301\203\200+\301\244\2276\301\244\2276\301\272\003%\301\3359\020\301\203\200+\301\317o\023\301\203\200+\301\244\2276\301\244\2276\301\244\2276\301\230\354\031\301\244\2276\301\244\2276\301\272\003%\301\244\2276\301\244\2276\301\244\2276\301\244\2276\301\244\2276\301\244\2276\301\244\2276\301@R\025\301A\300\021\301V,\000\301\272\003%\301\203\200+\301\244\2276\301@R\025\301\244\2276\301ai \301ai \301\203\200+\301\272\003%\301\244\2276\301\244\2276\301\244\2276\301\203\200+\301\317o\023\3011u\027\301\315B\t\301A\300\021\301\244\2276\301\244\2276\301ai \301\244\2276\301\244\2276\301\203\200+\301\244\2276\301\203\200+\301\272\003%\301\244\2276\301\244\2276\301\272\003%\301\203\200+\301\203\200+\301\244\2276\301\272\003%\301V,\000\301\244\2276\301@R\025\301A\300\021\301\244\2276\301\203\200+\301\203\200+\301\244\2276\301\272\003%\301\244\2276\301\272\003%\301ai \301ai \301A\300\021\301\203\200+\301\272\003%\301\272\003%\301\244\2276\301\244\2276\3011u\027\301\272\003%\301\272\003%\301xC\013\301\203\200+\301b\327\034\301\244\2276\301\203\200+\301\244\2276\301w\325\016\301\3359\020\301U\276\003\301ai \301\345\333\001\301@R\025\301\203\200+\301ai \301ai \301ai \301\244\2276\301\244\2276\301\203\200+\301\244\2276\301\272\003%\301\244\2276\301\244\2276\301\203\200+\301\244\2276\3011u\027\301\244\2276\301\230\354\031\301\203\200+\301b\327\034\301\203\200+\301\244\2276\301b\327\034\301\244\2276\301\273\"\005\301\272\003%\301\203\200+\301\244\2276\301\244\2276\301\244\2276\301\203\200+\301\244\2276\3011u\027\301\244\2276\301\244\2276\301\272\003%\301\272\003%\301\244\2276\301\244\2276\301\244\2276\301\244\2276\301ai \301\203\200+\301\272\003%\301\272\003%\301\203\200+\301\315B\t\301\272\003%\301\244\2276\301\244\2276\301\244\2276\301\203\200+\301\317o\023\301w\325\016\301\203\200+\301\203\200+\301\203\200+\301\244\2276\301\244\2276\301\272\003%\301-\310\370\300\203\200+\301ai \301A\300\021\301\244\2276\301\244\2276\301b\327\034\301\272\003%\301ai \301ai \301\272\003%\301xC\013\301\230\354\031\301\244\2276\301\244\2276\301\317o\023\301\244\2276\301\203\200+\301b\327\034\301b\363\367\300\244\2276\301\272\003%\301\244\2276\301\244\2276\301\337\372\361\300\234\215\r\301ai \301\244\2276\301\244\2276\301\244\2276\301b\327\034\301\244\2276\301b\327\034\301\244\2276\301\244\2276\301\203\200+\301\244\2276\301\244\2276\301\244\2276\301\244\2276\301\203\200+\301\256X\010\301\244\2276\301\3359\020\3018{\007\301\272\003%\301@R\025\301ai \301\244\2276\301\317o\023\301\203\200+\301\244\2276\301\272\003%\301\230\354\031\301\244\2276\301\244\2276\301@R\025\301b\327\034\301\3359\020\301\244\2276\301\244\2276\301ai \301\203\200+\301\244\2276\301\244\2276\301ai \301\244\2276\301\272\003%\301\203\200+\301\244\2276\301\244\2276\301\244\2276\301\244\2276\301\203\200+\301\203\200+\301\234\215\r\301\244\2276\301\203\200+\301\203\200+\301\244\2276\301\230\354\031\301\244\2276\301\244\2276\301\244\2276\301\244\2276\301\272\003%\301\345\333\001\301\203\200+\301\203\200+\301\261\276\356\300\203\200+\301\203\200+\301\244\2276\301\244\2276\301ai \301\244\2276\301\244\2276\301ai \301\244\2276\301\036;\n\301\230\354\031\301\203\200+\301\230\354\031\301\244\2276\301b\327\034\301ai \301\244\2276\301\244\2276\301\244\2276\301\244\2276\301\272\003%\301\244\2276\301ai \301\244\2276\301\244\2276\301\244\2276\301@R\025\301\244\2276\3011u\027\301\272\003%\301\244\2276\301\203\200+\301\244\2276\301\244\2276\301\244\2276\301\244\2276\301\272\003%\301VW\374\300\203\200+\301\203\200+\301ai \301\244\2276\301\244\2276\301w\325\016\301xC\013\301\203\200+\301\244\2276\3011u\027\301@R\025\301\244\2276\301\244\2276\301\244\2276\301\203\200+\301\315B\t\301\203\200+\301\244\2276\301\203\200+\301@R\025\301\244\2276\301\317o\023\301\272\003%\301\203\200+\301\230\354\031\301G\341\005\301ai \301ai \301\272\003%\301\244\2276\301\244\2276\301\244\2276\301\230\354\031\301\244\2276\301\203\200+\301\3359\020\301A\300\021\301\244\2276\301\273\"\005\301\244\2276\301\203\200+\301\230\354\031\301ai \301U\276\003\301\244\2276\301\272\003%\301ai \301\203\200+\301\244\2276\301\244\2276\301\244\2276\301\244\2276\301\244\2276\301A\300\021\301\272\003%\301\244\2276\301\244\2276\301\272\003%\301\244\2276\301\244\2276\301\272\003%\301b\327\034\301b\327\034\301\203\200+\301\203\200+\301\244\2276\301\244\2276\301ai \301A\300\021\301\036;\n\301\244\2276\301\244\2276\301\203\200+\301\304]\357\300\244\2276\301\244\2276\301\203\200+\301b\363\367\300\244\2276\301\244\2276\301\272\003%\301\244\2276\301\244\2276\301\203\200+\301\317o\023\301\244\2276\301ai \3011u\027\301\272\003%\301\250l\004\301\203\200+\301\3359\020\301\203\200+\301\244\2276\301\317o\023\301\203\200+\301\244\2276\301\244\2276\301\244\2276\301\203\200+\301ai \301\256X\010\301\272\003%\301\244\2276\301\244\2276\301\244\2276\301\244\2276\301ai \301\244\2276\301\244\2276\301\244\2276\301\272\003%\301\244\2276\301ai \301\244\242\371\300\203\200+\301\244\2276\301\244\2276\301\203\200+\301\203\200+\301\230\354\031\301\272\003%\301\244\2276\301\017L\377\300\272\003%\301\272\003%\301b\327\034\301\017L\377\300\244\2276\301\244\2276\301\244\2276\301\272\003%\301\244\2276\301ai \301\203\200+\301\244\2276\301\230\354\031\301\273\"\005\301\203\200+\301\244\2276\301\230\354\031\301\037\251\006\3012\267\000\301\272\003%\301@R\025\301\020^\014\301ai \301\3359\020\301\244\2276\301ai \301\244\2276\301\272\003%\301\203\200+\301\203\200+\301\244\2276\301\203\200+\301w\325\016\301\230\354\031\301\315B\t\301\020^\014\301b\327\034\301\244\2276\301\203\200+\3011u\027\301@R\025\301ai \301\244\2276\301\244\2276\301\244\2276\301\244\2276\301\203\200+\301\244\2276\301\244\2276\301\244\2276\301@R\025\301\244\2276\301\203\200+\301\244\2276\301\244\2276\301ai \301\244\2276\301\244\2276\301\244\2276\301\244\2276\301\230\354\031\301\203\200+\301\273\"\005\301\203\200+\301\272\003%\301\203\200+\301\251_\316\300\203\200+\301\320\372\317\300\203\200+\301\203\200+\301\203\200+\301\244\2276\301\244\2276\301\203\200+\301ai \301\244\2276\301\244\2276\301ai \301\244\2276\301\203\200+\301\272\003%\301\244\2276\301\244\2276\301\244\2276\301\244\2276\301ai \301\244\2276\301\244\2276\301\244\2276\301\344K\375\300@R\025\301\244\2276\301\203\200+\3011u\027\301\244\2276\301ai \301\203\200+\301\244\2276\301\234\215\r\301\244\2276\301\244\2276\301\250l\004\301\203\200+\301\244\2276\301ai \301\244\2276\301\272\003%\301VW\374\300\244\2276\301\203\200+\301\203\200+\301\244\2276\301\244\2276\301w\325\016\301\203\200+\301\272\003%\301\344K\375\300\203\200+\301\203\200+\301\203\200+\301\244\2276\301\203\200+\301\203\200+\301\244\2276\301\244\2276\301\3359\020\301\244\2276\301\244\2276\301\244\2276\301\244\2276\301@R\025\301\244\2276\301\244\2276\301\272\003%\301\203\200+\3018{\007\301w\325\016\3018{\007\301\203\200+\3011u\027\301b\327\034\301\203\200+\301\244\2276\301@R\025\301\244\2276\301\244\2276\301\244\2276\301\244\2276\301@R\025\301\244\2276\301\244\2276\301b\327\034\301@R\025\3011u\027\301\273\"\005\301\203\200+\301{\261\345\300b\327\034\3018{\007\301w\325\016\3011u\027\301@R\025\301\272\003%\301\244\2276\301b\327\034\301\244\2276\301*\270\323\300\203\200+\301\244\2276\301\203\200+\301\230\354\031\301\244\2276\301\345\333\001\301\317o\023\301\230\354\031\301ai \301\244\2276\301\244\2276\301\203\200+\301\244\2276\301\244\2276\301\203\200+\301\345\333\001\301\244\2276\301\317o\023\301\203\200+\301\244\2276\301\230\354\031\301ai \301\203\200+\301\244\2276\301\244\2276\301\244\2276\301\203\200+\301\3359\020\301\244\2276\301xC\013\301\272\003%\301\244\2276\301\244\2276\301\203\200+\301\256X\010\301\244\2276\301\244\2276\301\203\200+\301\244\2276\301\244\2276\301\203\200+\301\244\2276\301\244\2276\301\272\003%\301\272\003%\301\272\003%\301\3359\020\301\203\200+\301\244\2276\301\244\2276\301\244\2276\301\244\2276\301\272\003%\301\230\354\031\301\203\200+\301\244\2276\301ai \301\230\354\031\301\244\2276\301\244\2276\301\203\200+\301\203\200+\301\203\200+\301\244\2276\301b\327\034\301@R\025\301\203\200+\301\272\003%\301\230\354\031\301\244\2276\301\244\2276\301\203\200+\301\244\2276\301ai \301\244\2276\301ai \301\244\2276\301\244\2276\301\244\2276\301\272\003%\301\244\2276\301\244\2276\301\244\2276\301\203\200+\301\244\2276\301\244\2276\301\203\200+\301\244\2276\301\203\200+\301\345\333\001\301\036;\n\301\203\200+\301\203\200+\301\244\2276\301\256X\010\301\020^\014\301\3359\020\301A\300\021\301\272\003%\301\244\2276\301\230\354\031\301\203\200+\301\272\003%\301\244\2276\301\230\354\031\301\272\003%\301\230\354\031\301\203\200+\301 \027\003\301ai \301\203\200+\301\037\251\006\301\203\200+\301\317o\023\301\337i\373\300\244\2276\301\256X\010\301\244\2276\301\244\2276\301\244\242\371\300\203\200+\301\244\2276\301\203\200+\301\244\2276\301\244\2276\301\244\2276\301\244\2276\301\203\200+\301\244\2276\301\244\2276\301\244\2276\301\256X\010\301ai \301\203\200+\301\244\2276\301\203\200+\301\203\200+\301b\327\034\301\244\2276\301@R\025\301\244\2276\301\272\003%\301A\300\021\301\203\200+\301\3359\020\301A\300\021\301A\300\021\301\317o\023\301\244\2276\301ai \301ai \301\272\003%\301\244\2276\301\230\354\031\301\244\2276\301\203\200+\301\244\2276\301\317o\023\301@R\025\301\272\003%\301\272\003%\301\244\2276\301\203\200+\301\244\2276\301\315B\t\301ai \301\036;\n\301\230\354\031\301\317o\023\301A\300\021\301\244\2276\301\272\003%\301\203\200+\301 \027\003\301\3359\020\301\230\354\031\301ai \301ai \301\244\2276\301\244\2276\301\244\2276\301\244\2276\301\244\2276\301\203\200+\301\244\2276\301\272\003%\301\263Y\366\300\244\2276\301\273\"\005\301E\245\336\300\203\200+\301\230\354\031\301\203\200+\301\230\354\031\301\244\2276\301\272\003%\301@R\025\301\244\2276\301\244\2276\301\244\2276\301A\300\021\301G\341\005\301\244\2276\301\203\200+\301b\327\034\301\244\2276\301\244\2276\301\244\2276\301\203\200+\301\272\003%\301\203\200+\301\203\200+\301\272\003%\301\244\2276\301\244\2276\301\3359\020\301\272\003%\301\244\2276\301\272\003%\301\244\2276\301\244\2276\301\244\2276\301\244\2276\301xC\013\301\244\2276\301\244\2276\301\244\2276\301\272\003%\301\244\2276\301\244\2276\301\244\2276\301\244\2276\301\244\2276\301\315B\t\301\203\200+\301\244\2276\301ai \301\203\200+\301\244\2276\301\244\2276\301\250l\004\301ai \301ai \301b\327\034\301\244\2276\301\203\200+\301A\300\021\301\244\2276\301\244\2276\301\203\200+\301\244\2276\301\244\2276\301\244\2276\301\244\2276\3011u\027\301\244\2276\301\244\2276\301\244\2276\301\317o\023\301\272\003%\301\244\2276\301\203\200+\301b\327\034\301\203\200+\301\244\2276\301\203\200+\301\244\2276\301\272\003%\301\272\003%\301\244\2276\301\244\2276\301\244\2276\301\244\2276\301\234\215\r\301ai \301b\327\034\301\356F\001\301\272\003%\301\203\200+\301\272\003%\301\244\2276\301ai \301b\327\034\301\230\354\031\301ai \301\244\2276\301\244\2276\301\230\354\031\301\244\2276\301w\325\016\301\244\2276\301b\327\034\301\244\2276\301ai \301\244\2276\301\244\2276\301\244\2276\301\203\200+\301\317o\023\301\244\2276\301\203\200+\301\337\372\361\300\272\003%\301\203\200+\301b\327\034\301\272\003%\301\244\2276\301\203\200+\301\203\200+\301\244\2276\301\244\2276\301\244\2276\301\244\2276\301\244\2276\301\244\2276\301\244\2276\301\203\200+\301\244\2276\301\244\2276\301\203\200+\301ai \301\230\354\031\301\244\2276\301ai \301\203\200+\301\203\200+\301w\325\016\301\244\2276\301\244\2276\301ai \301\203\200+\301\244\2276\301\244\2276\301\230\354\031\301xC\013\301xC\013\301ai \301ai \301\244\2276\301@R\025\301\244\2276\301\244\2276\301\244\2276\301\244\2276\301\244\2276\301\244\2276\301\244\2276\301\203\200+\301\272\003%\301\244\2276\301\244\2276\301U\276\003\301A\300\021\301\203\200+\301ai \301\244\2276\301b\327\034\301\272\003%\301\244\2276\301\324.\342\300\272\003%\301\244\2276\301\244\2276\301\203\200+\301\244\2276\301\244\2276\301\244\2276\301\244\2276\301\272\003%\301\244\2276\301\272\003%\301\244\2276\301\203\200+\301b\327\034\301b\327\034\301@R\025\301\244\2276\301\234\215\r\301\272\003%\301\244\2276\301\244\2276\301V,\000\301\244\2276\301\244\2276\301\244\2276\301\203\200+\301\373#\367\300b\327\034\301\244\2276\301\272\003%\301\244\2276\301\244\2276\301\244\2276\301\230\354\031\301\244\2276\301ai \301\203\200+\301\203\200+\301\203\200+\301\244\2276\301}\245\360\300\230\354\031\301\203\200+\301\230\354\031\301\244\2276\301\244\2276\301\244\2276\301b\327\034\301\203\200+\301\203\200+\301@R\025\301\244\2276\301ai \301ai \301\203\200+\301\244\2276\301\273\"\005\301\244\2276\301ai \301\203\200+\301\203\200+\301\244\2276\301\244\2276\301b\327\034\301\244\2276\301\244\2276\301\244\2276\301\203\200+\301\203\200+\301\266\031\350\300\203\200+\301\234\215\r\301\244\2276\301\244\2276\301\244\2276\301\203\200+\301\203\200+\301\244\2276\301A\300\021\301\244\2276\301\272\003%\301\244\2276\301\244\2276\301\244\2276\301@R\025\301b\327\034\301\272\003%\301\203\200+\301\244\2276\301\244\2276\301\244\2276\301\244\2276\301\230\354\031\301\244\2276\301\244\2276\301\244\2276\301\244\2276\301\203\200+\301\244\2276\301\244\2276\301\244\2276\301-\310\370\300ai \301\203\200+\301\244\2276\301\272\003%\301\244\2276\301\244\2276\301\304]\357\300b\327\034\301\244\2276\301ai \301\244\2276\301\272\003%\301\244\2276\301ai \3011u\027\301\230\354\031\301ai \301\272\003%\3012\267\000\301\203\200+\301\203\200+\301\272\003%\301\244\2276\301V,\000\301ai \301\244\2276\301\244\2276\301\272\003%\301\203\200+\301b\327\034\301\244\2276\301\244\2276\301\244\2276\301\244\2276\301\244\2276\301b\327\034\301\203\200+\301\272\003%\301ai \301\234\215\r\301\244\2276\301\244\2276\301\203\200+\301\244\2276\301\244\2276\301\272\003%\301\244\2276\301\244\2276\301b\327\034\301\203\200+\301\244\2276\301\203\200+\301\203\200+\301\244\2276\301\244\2276\301\244\2276\301\203\200+\301ai \301\256X\010\301b\327\034\301\3359\020\301\317o\023\301\203\200+\301\244\2276\301\272\003%\301\244\2276\301\244\2276\301\244\2276\301\244\2276\301\244\2276\301\203\200+\301\244\2276\301\244\2276\301\244\2276\301\230\354\031\301\244\2276\3011u\027\301\244\2276\301\272\003%\301\272\003%\301ai \301\244\2276\301\244\2276\301\272\003%\301\203\200+\301\203\200+\301\244\2276\301\272\003%\3011u\027\301\244\2276\301b\327\034\3011u\027\301\317o\023\301\244\2276\301\244\2276\301\244\2276\301@R\025\301A\300\021\301\244\2276\301\244\2276\301\244\2276\301ai \301\244\2276\301\272\003%\301\3359\020\301\036;\n\301\244\2276\301b\327\034\301\244\2276\301\244\2276\301\244\2276\301\203\200+\301\272\003%\301\244\2276\301\272\003%\301\244\2276\301\317o\023\301\203\200+\301\272\003%\3011u\027\301\272\003%\301\244\2276\301\244\2276\301\244\2276\301\203\200+\301\244\2276\301zv\002\301@R\025\301\244\2276\301\244\2276\301\272\003%\301\244\2276\301\244\2276\301\244\2276\301\244\2276\301ai \301\244\2276\301\203\200+\301w\325\016\301\244\2276\301\244\2276\301\244\2276\301\203\200+\301\244\2276\301\203\200+\301\244\2276\301\272\003%\301\244\2276\301b\327\034\301\244\2276\301\203\200+\301\272\003%\301\203\200+\301\244\2276\301\244\2276\301\244\2276\301\250l\004\301\244\2276\301\244\2276\301\203\200+\301\203\200+\301\272\003%\301\272\003%\301ai \301\317o\023\301\244\2276\301\203\200+\301\244\2276\301\244\2276\301ai \301\203\200+\301\203\200+\301\203\200+\301b\327\034\301\244\2276\301\244\2276\301\244\2276\301ai \301\272\003%\301\244\2276\301\203\200+\301\244\2276\301\244\2276\301\244\2276\301ai \301ai \301\244\2276\301ai \301\244\2276\301b\327\034\301\203\200+\301\203\200+\301\244\2276\301\244\2276\301\244\2276\301\230\354\031\301\244\2276\301\244\2276\301\317o\023\301b\327\034\301\317o\023\301\203\200+\301\244\2276\301ai \301\272\003%\301\272\003%\301\244\2276\301ai \301\203\200+\301\203\200+\301\244\2276\301\244\2276\301\244\2276\301\244\2276\301\230\354\031\301\203\200+\301\203\200+\301\244\2276\301\317o\023\301\203\200+\301\244\2276\301\203\200+\301\244\2276\301\272\003%\3018{\007\301\244\2276\301\244\2276\301\244\2276\301\244\2276\301\203\200+\301\203\200+\301\244\2276\301\244\2276\301\244\2276\301ai \301\244\2276\301\244\2276\301w\325\016\301b\327\034\301\244\2276\301\244\2276\301\272\003%\301\244\2276\301\244\2276\301\244\2276\301\244\2276\301\244\2276\301ai \301\272\003%\301b\327\034\301\244\2276\301b\327\034\301\203\200+\301\203\200+\301\230\354\031\301\244\2276\301\036;\n\301\244\2276\301\244\2276\301\203\200+\301\244\2276\301\203\200+\301\244\2276\301\244\2276\301\272\003%\301\272\003%\301w\325\016\301\244\2276\301\244\2276\301\244\2276\301\203\200+\301\272\003%\301\244\2276\301\244\2276\301\256X\010\301\3359\020\301\244\2276\301\203\200+\301\203\200+\301\203\200+\301\272\003%\301\244\2276\301\244\2276\301\244\2276\301\244\2276\301\272\003%\301\244\2276\301\203\200+\301\3359\020\301A\300\021\301\203\200+\301\203\200+\301\244\2276\301\203\200+\301\317o\023\301\244\2276\301\203\200+\301\203\200+\301\244\2276\301\203\200+\301\244\2276\301\244\2276\301\244\2276\301\244\2276\301\244\2276\301\244\2276\301\244\2276\301\023)\346\300\244\2276\301\230\354\031\301\203\200+\301ai \301\230\354\031\301\244\2276\301\244\2276\301\244\2276\301\203\200+\301w\325\016\301\203\200+\301\203\200+\301\244\2276\301\317o\023\301\272\003%\301\203\200+\301\244\2276\301\273\"\005\301\244\2276\301b\327\034\301ai \301\317o\023\301\244\2276\301\244\2276\301w\325\016\301\020^\014\301\244\2276\301\230\354\031\301\244\2276\301b\327\034\301\3359\020\301\203\200+\301w\325\016\301\317o\023\301\244\2276\301ai \301\203\200+\301\244\2276\301\203\200+\301\203\200+\301\244\2276\301\272\003%\301\244\2276\301\244\2276\301\272\003%\301\203\200+\301\203\200+\301\373#\367\300\203\200+\301A\300\021\301\244\2276\301\244\2276\301\230\354\031\301A\300\021\301\244\2276\301\244\2276\301\244\2276\301\352\231\342\300\244\2276\301\272\003%\301\244\2276\301b\327\034\301\203\200+\301\244\2276\301\244\2276\301\203\200+\301\203\200+\301\244\2276\301\244\2276\301\230\354\031\301\244\2276\301\244\2276\301\244\2276\301\244\2276\301\244\2276\301\244\2276\301\203\200+\301\244\2276\301\244\2276\301\244\2276\301\244\2276\301@R\025\301\203\200+\301\036;\n\301\244\2276\301\244\2276\301\203\200+\301\203\200+\301ai \301\244\2276\301\244\2276\301\203\200+\301A\300\021\301\244\2276\301b\327\034\301\203\200+\301\244\2276\301\244\2276\301xC\013\301\223\265\315\300\244\2276\301b\327\034\301\244\2276\301ai \301\244\2276\301\203\200+\301\317o\023\301\244\2276\301\244\2276\3012\267\000\301\203\200+\301ai \301\272\003%\301\244\2276\301\244\2276\301@R\025\301\244\2276\301\244\2276\301\244\2276\301\244\2276\301\244\2276\301\272\003%\301A\300\021\301\203\200+\301b\327\034\301\001\243\351\300\r\253\362\300@R\025\301\203\200+\301\244\2276\301\244\2276\301\244\2276\301\244\2276\301\244\2276\301A\300\021\301\203\200+\301ai \301\3359\020\301\317o\023\301\272\003%\301\230\354\031\301ai \301\244\2276\301ai \301\203\200+\301\244\2276\301@R\025\301\230\354\031\301\244\2276\301G\341\005\301\244\2276\301\244\2276\301\244\2276\301\272\003%\301\244\2276\301\244\2276\301b\327\034\301b\327\034\301A\300\021\301\244\2276\301\244\2276\301\244\2276\301\244\2276\301ai \301\244\2276\301\244\2276\301\244\2276\301\244\2276\301\244\2276\301\244\2276\301U\276\003\301\203\200+\301\272\003%\301\244\2276\301w\325\016\301\371G\376\300\244\2276\301\272\003%\301b\327\034\301\272\003%\301\244\2276\301\244\2276\301\244\2276\301\244\2276\301\244\2276\301\272\003%\301\244\2276\301\230\354\031\301\272\003%\301\244\2276\301\244\2276\301\244\2276\301\203\200+\301\244\2276\301\244\2276\301\244\2276\301\244\2276\301\203\200+\301\272\003%\301\244\2276\301\244\2276\301w\325\016\301\244\2276\301\203\200+\301\203\200+\3011u\027\301\244\2276\301\203\200+\301b\327\034\301X\240\325\300\203\200+\301ai \301\230\354\031\301\244\2276\301\203\200+\301\203\200+\301\230\354\031\301ai \301ai \3018{\007\301\244\2276\301\272\003%\301@R\025\301\244\2276\301\203\200+\301\203\200+\301\203\200+\301\244\2276\301\244\2276\301\244\2276\301\203\200+\301\244\2276\301ai \301@R\025\301\244\2276\301\244\2276\301\203\200+\301\203\200+\301\272\003%\301\244\2276\301\244\2276\301\203\200+\301w\325\016\301\203\200+\301V,\000\301\244\2276\301\261\276\356\300\203\200+\301\244\2276\301\203\200+\301\244\2276\301\244\2276\301\203\200+\301\244\2276\301b\327\034\301\244\2276\301\203\200+\301\371G\376\300\244\2276\3011u\027\301\272\003%\301\244\2276\301ai \301\203\200+\301\272\003%\301\244\2276\301\244\2276\301\244\2276\301\244\2276\301\244\2276\3011u\027\301\244\2276\301\244\2276\301\244\2276\301\244\2276\301\244\2276\301\244\2276\301\244\2276\301\244\2276\301\244\2276\301\244\2276\301\244\2276\301\244\2276\301\272\003%\301\244\2276\301\244\2276\301\203\200+\301\244\2276\301\244\2276\301\272\003%\301\244\2276\301\272\003%\301\244\2276\301\203\200+\301\244\2276\301C\214\307\300xC\013\301\244\2276\301\203\200+\301\244\2276\301xC\013\301\203\200+\301\272\003%\301b\327\034\301b\327\034\301\244\2276\301\244\2276\301\272\003%\301\244\2276\301ai 